TRT-7203-EntropyCalibration2
Input: 3c010204
(Unnamed Layer* 652) [Constant]_output: 3a4fb8dc
FeatureExtractor/MobilenetV2/Conv/Conv2D: 3d9d7cf4
FeatureExtractor/MobilenetV2/Conv/BatchNorm/FusedBatchNorm: 3da875a4
FeatureExtractor/MobilenetV2/Conv/Relu6: 3d418306
FeatureExtractor/MobilenetV2/expanded_conv/depthwise/depthwise: 3dc4f5ef
FeatureExtractor/MobilenetV2/expanded_conv/depthwise/BatchNorm/FusedBatchNorm: 3d992e1b
FeatureExtractor/MobilenetV2/expanded_conv/depthwise/Relu6: 3d418306
FeatureExtractor/MobilenetV2/expanded_conv/project/Conv2D: 3e009d3b
FeatureExtractor/MobilenetV2/expanded_conv/project/BatchNorm/FusedBatchNorm: 3dc9e030
FeatureExtractor/MobilenetV2/expanded_conv_1/expand/Conv2D: 3e0280b9
FeatureExtractor/MobilenetV2/expanded_conv_1/expand/BatchNorm/FusedBatchNorm: 3dbc5a38
FeatureExtractor/MobilenetV2/expanded_conv_1/expand/Relu6: 3d418306
FeatureExtractor/MobilenetV2/expanded_conv_1/depthwise/depthwise: 3d6d000b
FeatureExtractor/MobilenetV2/expanded_conv_1/depthwise/BatchNorm/FusedBatchNorm: 3dacbf8b
FeatureExtractor/MobilenetV2/expanded_conv_1/depthwise/Relu6: 3d418306
FeatureExtractor/MobilenetV2/expanded_conv_1/project/Conv2D: 3e04e875
FeatureExtractor/MobilenetV2/expanded_conv_1/project/BatchNorm/FusedBatchNorm: 3db5f798
FeatureExtractor/MobilenetV2/expanded_conv_2/expand/Conv2D: 3de750a5
FeatureExtractor/MobilenetV2/expanded_conv_2/expand/BatchNorm/FusedBatchNorm: 3d9c1f78
FeatureExtractor/MobilenetV2/expanded_conv_2/expand/Relu6: 3d418306
FeatureExtractor/MobilenetV2/expanded_conv_2/depthwise/depthwise: 3d432465
FeatureExtractor/MobilenetV2/expanded_conv_2/depthwise/BatchNorm/FusedBatchNorm: 3da0ad1b
FeatureExtractor/MobilenetV2/expanded_conv_2/depthwise/Relu6: 3d418306
FeatureExtractor/MobilenetV2/expanded_conv_2/project/Conv2D: 3de0a5a0
FeatureExtractor/MobilenetV2/expanded_conv_2/project/BatchNorm/FusedBatchNorm: 3d995ab2
FeatureExtractor/MobilenetV2/expanded_conv_2/add: 3de4e041
FeatureExtractor/MobilenetV2/expanded_conv_3/expand/Conv2D: 3e0cfa5b
FeatureExtractor/MobilenetV2/expanded_conv_3/expand/BatchNorm/FusedBatchNorm: 3d9643ec
FeatureExtractor/MobilenetV2/expanded_conv_3/expand/Relu6: 3d418306
FeatureExtractor/MobilenetV2/expanded_conv_3/depthwise/depthwise: 3d7051de
FeatureExtractor/MobilenetV2/expanded_conv_3/depthwise/BatchNorm/FusedBatchNorm: 3d8e359d
FeatureExtractor/MobilenetV2/expanded_conv_3/depthwise/Relu6: 3d418306
FeatureExtractor/MobilenetV2/expanded_conv_3/project/Conv2D: 3dfa2338
FeatureExtractor/MobilenetV2/expanded_conv_3/project/BatchNorm/FusedBatchNorm: 3d91bfa6
FeatureExtractor/MobilenetV2/expanded_conv_4/expand/Conv2D: 3d919e04
FeatureExtractor/MobilenetV2/expanded_conv_4/expand/BatchNorm/FusedBatchNorm: 3d7c0937
FeatureExtractor/MobilenetV2/expanded_conv_4/expand/Relu6: 3d418306
FeatureExtractor/MobilenetV2/expanded_conv_4/depthwise/depthwise: 3d0a17e7
FeatureExtractor/MobilenetV2/expanded_conv_4/depthwise/BatchNorm/FusedBatchNorm: 3d60ba01
FeatureExtractor/MobilenetV2/expanded_conv_4/depthwise/Relu6: 3d418306
FeatureExtractor/MobilenetV2/expanded_conv_4/project/Conv2D: 3dbe8159
FeatureExtractor/MobilenetV2/expanded_conv_4/project/BatchNorm/FusedBatchNorm: 3d68ba56
FeatureExtractor/MobilenetV2/expanded_conv_4/add: 3daf96b6
FeatureExtractor/MobilenetV2/expanded_conv_5/expand/Conv2D: 3db26a8e
FeatureExtractor/MobilenetV2/expanded_conv_5/expand/BatchNorm/FusedBatchNorm: 3d7570fc
FeatureExtractor/MobilenetV2/expanded_conv_5/expand/Relu6: 3d418306
FeatureExtractor/MobilenetV2/expanded_conv_5/depthwise/depthwise: 3cead259
FeatureExtractor/MobilenetV2/expanded_conv_5/depthwise/BatchNorm/FusedBatchNorm: 3d8321fd
FeatureExtractor/MobilenetV2/expanded_conv_5/depthwise/Relu6: 3d418306
FeatureExtractor/MobilenetV2/expanded_conv_5/project/Conv2D: 3d945599
FeatureExtractor/MobilenetV2/expanded_conv_5/project/BatchNorm/FusedBatchNorm: 3d9364f6
FeatureExtractor/MobilenetV2/expanded_conv_5/add: 3dea2d02
FeatureExtractor/MobilenetV2/expanded_conv_6/expand/Conv2D: 3e087ce5
FeatureExtractor/MobilenetV2/expanded_conv_6/expand/BatchNorm/FusedBatchNorm: 3d60afd0
FeatureExtractor/MobilenetV2/expanded_conv_6/expand/Relu6: 3d418306
FeatureExtractor/MobilenetV2/expanded_conv_6/depthwise/depthwise: 3d0b7d36
FeatureExtractor/MobilenetV2/expanded_conv_6/depthwise/BatchNorm/FusedBatchNorm: 3d5964e4
FeatureExtractor/MobilenetV2/expanded_conv_6/depthwise/Relu6: 3d418306
FeatureExtractor/MobilenetV2/expanded_conv_6/project/Conv2D: 3db65bb9
FeatureExtractor/MobilenetV2/expanded_conv_6/project/BatchNorm/FusedBatchNorm: 3d588fc7
FeatureExtractor/MobilenetV2/expanded_conv_7/expand/Conv2D: 3d73d736
FeatureExtractor/MobilenetV2/expanded_conv_7/expand/BatchNorm/FusedBatchNorm: 3d56517b
FeatureExtractor/MobilenetV2/expanded_conv_7/expand/Relu6: 3d418306
FeatureExtractor/MobilenetV2/expanded_conv_7/depthwise/depthwise: 3cd91be9
FeatureExtractor/MobilenetV2/expanded_conv_7/depthwise/BatchNorm/FusedBatchNorm: 3d8bad6b
FeatureExtractor/MobilenetV2/expanded_conv_7/depthwise/Relu6: 3d418306
FeatureExtractor/MobilenetV2/expanded_conv_7/project/Conv2D: 3dd249e5
FeatureExtractor/MobilenetV2/expanded_conv_7/project/BatchNorm/FusedBatchNorm: 3d4cd004
FeatureExtractor/MobilenetV2/expanded_conv_7/add: 3d8853be
FeatureExtractor/MobilenetV2/expanded_conv_8/expand/Conv2D: 3d8f7202
FeatureExtractor/MobilenetV2/expanded_conv_8/expand/BatchNorm/FusedBatchNorm: 3d4512af
FeatureExtractor/MobilenetV2/expanded_conv_8/expand/Relu6: 3d418306
FeatureExtractor/MobilenetV2/expanded_conv_8/depthwise/depthwise: 3cc8eadd
FeatureExtractor/MobilenetV2/expanded_conv_8/depthwise/BatchNorm/FusedBatchNorm: 3d946568
FeatureExtractor/MobilenetV2/expanded_conv_8/depthwise/Relu6: 3d418306
FeatureExtractor/MobilenetV2/expanded_conv_8/project/Conv2D: 3d8cb738
FeatureExtractor/MobilenetV2/expanded_conv_8/project/BatchNorm/FusedBatchNorm: 3d467151
FeatureExtractor/MobilenetV2/expanded_conv_8/add: 3da0779c
FeatureExtractor/MobilenetV2/expanded_conv_9/expand/Conv2D: 3d99e6ce
FeatureExtractor/MobilenetV2/expanded_conv_9/expand/BatchNorm/FusedBatchNorm: 3d3eeef2
FeatureExtractor/MobilenetV2/expanded_conv_9/expand/Relu6: 3d418306
FeatureExtractor/MobilenetV2/expanded_conv_9/depthwise/depthwise: 3ca9891b
FeatureExtractor/MobilenetV2/expanded_conv_9/depthwise/BatchNorm/FusedBatchNorm: 3d7b69ca
FeatureExtractor/MobilenetV2/expanded_conv_9/depthwise/Relu6: 3d418306
FeatureExtractor/MobilenetV2/expanded_conv_9/project/Conv2D: 3d7ae0e1
FeatureExtractor/MobilenetV2/expanded_conv_9/project/BatchNorm/FusedBatchNorm: 3d5e4901
FeatureExtractor/MobilenetV2/expanded_conv_9/add: 3dd36fde
FeatureExtractor/MobilenetV2/expanded_conv_10/expand/Conv2D: 3e0262a3
FeatureExtractor/MobilenetV2/expanded_conv_10/expand/BatchNorm/FusedBatchNorm: 3d44e2af
FeatureExtractor/MobilenetV2/expanded_conv_10/expand/Relu6: 3d418306
FeatureExtractor/MobilenetV2/expanded_conv_10/depthwise/depthwise: 3ccbecdc
FeatureExtractor/MobilenetV2/expanded_conv_10/depthwise/BatchNorm/FusedBatchNorm: 3d812b69
FeatureExtractor/MobilenetV2/expanded_conv_10/depthwise/Relu6: 3d418306
FeatureExtractor/MobilenetV2/expanded_conv_10/project/Conv2D: 3dc12357
FeatureExtractor/MobilenetV2/expanded_conv_10/project/BatchNorm/FusedBatchNorm: 3d21ccfb
FeatureExtractor/MobilenetV2/expanded_conv_11/expand/Conv2D: 3d3205e2
FeatureExtractor/MobilenetV2/expanded_conv_11/expand/BatchNorm/FusedBatchNorm: 3d4071e9
FeatureExtractor/MobilenetV2/expanded_conv_11/expand/Relu6: 3d418306
FeatureExtractor/MobilenetV2/expanded_conv_11/depthwise/depthwise: 3c999a47
FeatureExtractor/MobilenetV2/expanded_conv_11/depthwise/BatchNorm/FusedBatchNorm: 3d84f5c3
FeatureExtractor/MobilenetV2/expanded_conv_11/depthwise/Relu6: 3d418306
FeatureExtractor/MobilenetV2/expanded_conv_11/project/Conv2D: 3dcedaa8
FeatureExtractor/MobilenetV2/expanded_conv_11/project/BatchNorm/FusedBatchNorm: 3d54c718
FeatureExtractor/MobilenetV2/expanded_conv_11/add: 3d86c926
FeatureExtractor/MobilenetV2/expanded_conv_12/expand/Conv2D: 3d9ad60f
FeatureExtractor/MobilenetV2/expanded_conv_12/expand/BatchNorm/FusedBatchNorm: 3d35b88f
FeatureExtractor/MobilenetV2/expanded_conv_12/expand/Relu6: 3d418306
FeatureExtractor/MobilenetV2/expanded_conv_12/depthwise/depthwise: 3c91bd63
FeatureExtractor/MobilenetV2/expanded_conv_12/depthwise/BatchNorm/FusedBatchNorm: 3d5ef656
FeatureExtractor/MobilenetV2/expanded_conv_12/depthwise/Relu6: 3d418306
FeatureExtractor/MobilenetV2/expanded_conv_12/project/Conv2D: 3da2de53
FeatureExtractor/MobilenetV2/expanded_conv_12/project/BatchNorm/FusedBatchNorm: 3d51ad4e
FeatureExtractor/MobilenetV2/expanded_conv_12/add: 3db311ef
FeatureExtractor/MobilenetV2/expanded_conv_13/expand/Conv2D: 3e125a15
FeatureExtractor/MobilenetV2/expanded_conv_13/expand/BatchNorm/FusedBatchNorm: 3d53b8dd
FeatureExtractor/MobilenetV2/expanded_conv_13/expand/Relu6: 3d418306
BoxPredictor_0/BoxEncodingPredictor_depthwise/depthwise: 3c63b7af
FeatureExtractor/MobilenetV2/expanded_conv_13/depthwise/depthwise: 3cbd0609
BoxPredictor_0/ClassPredictor_depthwise/depthwise: 3cc5ffeb
BoxPredictor_0/BoxEncodingPredictor_depthwise/BatchNorm/FusedBatchNorm: 3da8406a
FeatureExtractor/MobilenetV2/expanded_conv_13/depthwise/BatchNorm/FusedBatchNorm: 3d875b17
BoxPredictor_0/ClassPredictor_depthwise/BatchNorm/FusedBatchNorm: 3d7f229f
BoxPredictor_0/BoxEncodingPredictor_depthwise/Relu6: 3d418306
FeatureExtractor/MobilenetV2/expanded_conv_13/depthwise/Relu6: 3d418306
BoxPredictor_0/ClassPredictor_depthwise/Relu6: 3d418306
BoxPredictor_0/BoxEncodingPredictor/Conv2D: 3e433769
FeatureExtractor/MobilenetV2/expanded_conv_13/project/Conv2D: 3df5f601
BoxPredictor_0/ClassPredictor/Conv2D: 3e8496f7
BoxPredictor_0/BoxEncodingPredictor/BiasAdd: 3e6f5cdf
FeatureExtractor/MobilenetV2/expanded_conv_13/project/BatchNorm/FusedBatchNorm: 3d6b96d7
BoxPredictor_0/ClassPredictor/BiasAdd: 3e6f5cdf
FeatureExtractor/MobilenetV2/expanded_conv_14/expand/Conv2D: 3d626555
BoxPredictor_loc_conf_0: 3e6f5cdf
FeatureExtractor/MobilenetV2/expanded_conv_14/expand/BatchNorm/FusedBatchNorm: 3d5027bc
FeatureExtractor/MobilenetV2/expanded_conv_14/expand/Relu6: 3d418306
FeatureExtractor/MobilenetV2/expanded_conv_14/depthwise/depthwise: 3c7a7f14
FeatureExtractor/MobilenetV2/expanded_conv_14/depthwise/BatchNorm/FusedBatchNorm: 3d9a124b
FeatureExtractor/MobilenetV2/expanded_conv_14/depthwise/Relu6: 3d418306
FeatureExtractor/MobilenetV2/expanded_conv_14/project/Conv2D: 3dc4c2ff
FeatureExtractor/MobilenetV2/expanded_conv_14/project/BatchNorm/FusedBatchNorm: 3d3cdf5a
FeatureExtractor/MobilenetV2/expanded_conv_14/add: 3d9b3cd7
FeatureExtractor/MobilenetV2/expanded_conv_15/expand/Conv2D: 3d98e96d
FeatureExtractor/MobilenetV2/expanded_conv_15/expand/BatchNorm/FusedBatchNorm: 3d3f033f
FeatureExtractor/MobilenetV2/expanded_conv_15/expand/Relu6: 3d418306
FeatureExtractor/MobilenetV2/expanded_conv_15/depthwise/depthwise: 3c584bf4
FeatureExtractor/MobilenetV2/expanded_conv_15/depthwise/BatchNorm/FusedBatchNorm: 3d8bc7ad
FeatureExtractor/MobilenetV2/expanded_conv_15/depthwise/Relu6: 3d418306
FeatureExtractor/MobilenetV2/expanded_conv_15/project/Conv2D: 3d98109f
FeatureExtractor/MobilenetV2/expanded_conv_15/project/BatchNorm/FusedBatchNorm: 3d30e94a
FeatureExtractor/MobilenetV2/expanded_conv_15/add: 3dc98cba
FeatureExtractor/MobilenetV2/expanded_conv_16/expand/Conv2D: 3decadd6
FeatureExtractor/MobilenetV2/expanded_conv_16/expand/BatchNorm/FusedBatchNorm: 3d400925
FeatureExtractor/MobilenetV2/expanded_conv_16/expand/Relu6: 3d418306
FeatureExtractor/MobilenetV2/expanded_conv_16/depthwise/depthwise: 3c7760db
FeatureExtractor/MobilenetV2/expanded_conv_16/depthwise/BatchNorm/FusedBatchNorm: 3d9dbc52
FeatureExtractor/MobilenetV2/expanded_conv_16/depthwise/Relu6: 3d418306
FeatureExtractor/MobilenetV2/expanded_conv_16/project/Conv2D: 3dcb3430
FeatureExtractor/MobilenetV2/expanded_conv_16/project/BatchNorm/FusedBatchNorm: 3d373017
FeatureExtractor/MobilenetV2/Conv_1/Conv2D: 3dd5c06f
FeatureExtractor/MobilenetV2/Conv_1/BatchNorm/FusedBatchNorm: 3d3ba668
FeatureExtractor/MobilenetV2/Conv_1/Relu6: 3d418306
BoxPredictor_1/BoxEncodingPredictor_depthwise/depthwise: 3bc1665b
FeatureExtractor/MobilenetV2/layer_19_1_Conv2d_2_1x1_256/Conv2D: 3d9bf076
BoxPredictor_1/ClassPredictor_depthwise/depthwise: 3c4c6612
BoxPredictor_1/BoxEncodingPredictor_depthwise/BatchNorm/FusedBatchNorm: 3d5d513f
FeatureExtractor/MobilenetV2/layer_19_1_Conv2d_2_1x1_256/BatchNorm/FusedBatchNorm: 3d2b02c8
BoxPredictor_1/ClassPredictor_depthwise/BatchNorm/FusedBatchNorm: 3d8416af
BoxPredictor_1/BoxEncodingPredictor_depthwise/Relu6: 3d418306
FeatureExtractor/MobilenetV2/layer_19_1_Conv2d_2_1x1_256/Relu6: 3d418306
BoxPredictor_1/ClassPredictor_depthwise/Relu6: 3d418306
BoxPredictor_1/BoxEncodingPredictor/Conv2D: 3d0a125b
FeatureExtractor/MobilenetV2/layer_19_2_Conv2d_2_3x3_s2_512_depthwise/depthwise: 3c6877a5
BoxPredictor_1/ClassPredictor/Conv2D: 3ea4495d
BoxPredictor_1/BoxEncodingPredictor/BiasAdd: 3e931199
FeatureExtractor/MobilenetV2/layer_19_2_Conv2d_2_3x3_s2_512_depthwise/BatchNorm/FusedBatchNorm: 3d3bbe9d
BoxPredictor_1/ClassPredictor/BiasAdd: 3e931199
FeatureExtractor/MobilenetV2/layer_19_2_Conv2d_2_3x3_s2_512_depthwise/Relu6: 3d418306
BoxPredictor_loc_conf_1: 3e931199
FeatureExtractor/MobilenetV2/layer_19_2_Conv2d_2_3x3_s2_512/Conv2D: 3cf31430
FeatureExtractor/MobilenetV2/layer_19_2_Conv2d_2_3x3_s2_512/BatchNorm/FusedBatchNorm: 3d2fbde4
FeatureExtractor/MobilenetV2/layer_19_2_Conv2d_2_3x3_s2_512/Relu6: 3d418306
BoxPredictor_2/BoxEncodingPredictor_depthwise/depthwise: 3b8b5d75
FeatureExtractor/MobilenetV2/layer_19_1_Conv2d_3_1x1_128/Conv2D: 3d6712d3
BoxPredictor_2/ClassPredictor_depthwise/depthwise: 3c34d20c
BoxPredictor_2/BoxEncodingPredictor_depthwise/BatchNorm/FusedBatchNorm: 3d4e1455
FeatureExtractor/MobilenetV2/layer_19_1_Conv2d_3_1x1_128/BatchNorm/FusedBatchNorm: 3d4219e3
BoxPredictor_2/ClassPredictor_depthwise/BatchNorm/FusedBatchNorm: 3d6bd6a6
BoxPredictor_2/BoxEncodingPredictor_depthwise/Relu6: 3d418306
FeatureExtractor/MobilenetV2/layer_19_1_Conv2d_3_1x1_128/Relu6: 3d418306
BoxPredictor_2/ClassPredictor_depthwise/Relu6: 3d418306
BoxPredictor_2/BoxEncodingPredictor/Conv2D: 3ceb3c29
FeatureExtractor/MobilenetV2/layer_19_2_Conv2d_3_3x3_s2_256_depthwise/depthwise: 3c999a77
BoxPredictor_2/ClassPredictor/Conv2D: 3e1c944b
BoxPredictor_2/BoxEncodingPredictor/BiasAdd: 3e122837
FeatureExtractor/MobilenetV2/layer_19_2_Conv2d_3_3x3_s2_256_depthwise/BatchNorm/FusedBatchNorm: 3d625305
BoxPredictor_2/ClassPredictor/BiasAdd: 3e122837
FeatureExtractor/MobilenetV2/layer_19_2_Conv2d_3_3x3_s2_256_depthwise/Relu6: 3d418306
BoxPredictor_loc_conf_2: 3e122837
FeatureExtractor/MobilenetV2/layer_19_2_Conv2d_3_3x3_s2_256/Conv2D: 3ce07127
FeatureExtractor/MobilenetV2/layer_19_2_Conv2d_3_3x3_s2_256/BatchNorm/FusedBatchNorm: 3d56bc04
FeatureExtractor/MobilenetV2/layer_19_2_Conv2d_3_3x3_s2_256/Relu6: 3d418306
BoxPredictor_3/BoxEncodingPredictor_depthwise/depthwise: 3b8268d2
FeatureExtractor/MobilenetV2/layer_19_1_Conv2d_4_1x1_128/Conv2D: 3cccb4ce
BoxPredictor_3/ClassPredictor_depthwise/depthwise: 3beee8ed
BoxPredictor_3/BoxEncodingPredictor_depthwise/BatchNorm/FusedBatchNorm: 3d3ceac2
FeatureExtractor/MobilenetV2/layer_19_1_Conv2d_4_1x1_128/BatchNorm/FusedBatchNorm: 3d43da72
BoxPredictor_3/ClassPredictor_depthwise/BatchNorm/FusedBatchNorm: 3d5359fb
BoxPredictor_3/BoxEncodingPredictor_depthwise/Relu6: 3d418306
FeatureExtractor/MobilenetV2/layer_19_1_Conv2d_4_1x1_128/Relu6: 3d418306
BoxPredictor_3/ClassPredictor_depthwise/Relu6: 3d418306
BoxPredictor_3/BoxEncodingPredictor/Conv2D: 3cb59eb6
FeatureExtractor/MobilenetV2/layer_19_2_Conv2d_4_3x3_s2_256_depthwise/depthwise: 3bb3694e
BoxPredictor_3/ClassPredictor/Conv2D: 3dc6fb86
BoxPredictor_3/BoxEncodingPredictor/BiasAdd: 3dc23828
FeatureExtractor/MobilenetV2/layer_19_2_Conv2d_4_3x3_s2_256_depthwise/BatchNorm/FusedBatchNorm: 3d2a777a
BoxPredictor_3/ClassPredictor/BiasAdd: 3dc23828
FeatureExtractor/MobilenetV2/layer_19_2_Conv2d_4_3x3_s2_256_depthwise/Relu6: 3d418306
BoxPredictor_loc_conf_3: 3dc23828
FeatureExtractor/MobilenetV2/layer_19_2_Conv2d_4_3x3_s2_256/Conv2D: 3c3a2516
FeatureExtractor/MobilenetV2/layer_19_2_Conv2d_4_3x3_s2_256/BatchNorm/FusedBatchNorm: 3d1a4169
FeatureExtractor/MobilenetV2/layer_19_2_Conv2d_4_3x3_s2_256/Relu6: 3d418306
BoxPredictor_4/BoxEncodingPredictor_depthwise/depthwise: 3b24c290
FeatureExtractor/MobilenetV2/layer_19_1_Conv2d_5_1x1_64/Conv2D: 3c927272
BoxPredictor_4/ClassPredictor_depthwise/depthwise: 3b8a5476
BoxPredictor_4/BoxEncodingPredictor_depthwise/BatchNorm/FusedBatchNorm: 3d0e52da
FeatureExtractor/MobilenetV2/layer_19_1_Conv2d_5_1x1_64/BatchNorm/FusedBatchNorm: 3d398d0e
BoxPredictor_4/ClassPredictor_depthwise/BatchNorm/FusedBatchNorm: 3d07650f
BoxPredictor_4/BoxEncodingPredictor_depthwise/Relu6: 3d418306
FeatureExtractor/MobilenetV2/layer_19_1_Conv2d_5_1x1_64/Relu6: 3d418306
BoxPredictor_4/ClassPredictor_depthwise/Relu6: 3d418306
BoxPredictor_4/BoxEncodingPredictor/Conv2D: 3c80b8ae
FeatureExtractor/MobilenetV2/layer_19_2_Conv2d_5_3x3_s2_128_depthwise/depthwise: 3b9474f1
BoxPredictor_4/ClassPredictor/Conv2D: 3d93809f
BoxPredictor_4/BoxEncodingPredictor/BiasAdd: 3d8c51eb
FeatureExtractor/MobilenetV2/layer_19_2_Conv2d_5_3x3_s2_128_depthwise/BatchNorm/FusedBatchNorm: 3cf64f33
BoxPredictor_4/ClassPredictor/BiasAdd: 3d8c51eb
FeatureExtractor/MobilenetV2/layer_19_2_Conv2d_5_3x3_s2_128_depthwise/Relu6: 3d418306
BoxPredictor_loc_conf_4: 3d8c51eb
FeatureExtractor/MobilenetV2/layer_19_2_Conv2d_5_3x3_s2_128/Conv2D: 3c0e772b
FeatureExtractor/MobilenetV2/layer_19_2_Conv2d_5_3x3_s2_128/BatchNorm/FusedBatchNorm: 3d0614a2
FeatureExtractor/MobilenetV2/layer_19_2_Conv2d_5_3x3_s2_128/Relu6: 3d418306
BoxPredictor_5/BoxEncodingPredictor_depthwise/depthwise: 3b373ec5
BoxPredictor_5/ClassPredictor_depthwise/depthwise: 3b879786
BoxPredictor_5/BoxEncodingPredictor_depthwise/BatchNorm/FusedBatchNorm: 3ca090c7
BoxPredictor_5/ClassPredictor_depthwise/BatchNorm/FusedBatchNorm: 3c7bee7d
BoxPredictor_5/BoxEncodingPredictor_depthwise/Relu6: 3d418306
BoxPredictor_5/ClassPredictor_depthwise/Relu6: 3d418306
BoxPredictor_5/BoxEncodingPredictor/Conv2D: 3c95b68f
BoxPredictor_5/ClassPredictor/Conv2D: 3d650fc4
BoxPredictor_5/BoxEncodingPredictor/BiasAdd: 3d865a9e
BoxPredictor_5/ClassPredictor/BiasAdd: 3d865a9e
BoxPredictor_loc_conf_5: 3d865a9e
Postprocessor: 3c010a14
