TRT-7203-EntropyCalibration2
Input: 3c010204
prior_box: 3a4fb8dc
FeatureExtractor/MobilenetV2/Conv/Conv2D: 3d37d63b
FeatureExtractor/MobilenetV2/Conv/BatchNorm/batchnorm/mul_1: 3df9cc9c
FeatureExtractor/MobilenetV2/Conv/BatchNorm/batchnorm/add_1: 3da0e4d4
FeatureExtractor/MobilenetV2/Conv/Relu6: 3d418306
FeatureExtractor/MobilenetV2/expanded_conv/depthwise/depthwise: 3e63c593
FeatureExtractor/MobilenetV2/expanded_conv/depthwise/BatchNorm/batchnorm/mul_1: 3ed19e02
FeatureExtractor/MobilenetV2/expanded_conv/depthwise/BatchNorm/batchnorm/add_1: 3dc6b653
FeatureExtractor/MobilenetV2/expanded_conv/depthwise/Relu6: 3d418306
FeatureExtractor/MobilenetV2/expanded_conv/project/Conv2D: 3e398295
FeatureExtractor/MobilenetV2/expanded_conv/project/BatchNorm/batchnorm/mul_1: 3e5de09d
FeatureExtractor/MobilenetV2/expanded_conv/project/BatchNorm/batchnorm/add_1: 3e0f4d48
FeatureExtractor/MobilenetV2/expanded_conv_1/expand/Conv2D: 3e44517a
FeatureExtractor/MobilenetV2/expanded_conv_1/expand/BatchNorm/batchnorm/mul_1: 3dce4372
FeatureExtractor/MobilenetV2/expanded_conv_1/expand/BatchNorm/batchnorm/add_1: 3de3ff44
FeatureExtractor/MobilenetV2/expanded_conv_1/expand/Relu6: 3d418306
FeatureExtractor/MobilenetV2/expanded_conv_1/depthwise/depthwise: 3e50e7ab
FeatureExtractor/MobilenetV2/expanded_conv_1/depthwise/BatchNorm/batchnorm/mul_1: 3e0aba4f
FeatureExtractor/MobilenetV2/expanded_conv_1/depthwise/BatchNorm/batchnorm/add_1: 3d83bbee
FeatureExtractor/MobilenetV2/expanded_conv_1/depthwise/Relu6: 3d418306
FeatureExtractor/MobilenetV2/expanded_conv_1/project/Conv2D: 3e08f730
FeatureExtractor/MobilenetV2/expanded_conv_1/project/BatchNorm/batchnorm/mul_1: 3dfbd957
FeatureExtractor/MobilenetV2/expanded_conv_1/project/BatchNorm/batchnorm/add_1: 3de256ad
FeatureExtractor/MobilenetV2/expanded_conv_2/expand/Conv2D: 3e12822a
FeatureExtractor/MobilenetV2/expanded_conv_2/expand/BatchNorm/batchnorm/mul_1: 3da779b4
FeatureExtractor/MobilenetV2/expanded_conv_2/expand/BatchNorm/batchnorm/add_1: 3dd3cfb3
FeatureExtractor/MobilenetV2/expanded_conv_2/expand/Relu6: 3d418306
FeatureExtractor/MobilenetV2/expanded_conv_2/depthwise/depthwise: 3dd58edd
FeatureExtractor/MobilenetV2/expanded_conv_2/depthwise/BatchNorm/batchnorm/mul_1: 3de6ffcd
FeatureExtractor/MobilenetV2/expanded_conv_2/depthwise/BatchNorm/batchnorm/add_1: 3dda758b
FeatureExtractor/MobilenetV2/expanded_conv_2/depthwise/Relu6: 3d418306
FeatureExtractor/MobilenetV2/expanded_conv_2/project/Conv2D: 3df0fcd5
FeatureExtractor/MobilenetV2/expanded_conv_2/project/BatchNorm/batchnorm/mul_1: 3e4f47a5
FeatureExtractor/MobilenetV2/expanded_conv_2/project/BatchNorm/batchnorm/add_1: 3e34f8a5
FeatureExtractor/MobilenetV2/expanded_conv_2/add: 3e543764
FeatureExtractor/MobilenetV2/expanded_conv_3/expand/Conv2D: 3eae030d
FeatureExtractor/MobilenetV2/expanded_conv_3/expand/BatchNorm/batchnorm/mul_1: 3dae8359
FeatureExtractor/MobilenetV2/expanded_conv_3/expand/BatchNorm/batchnorm/add_1: 3db2408b
FeatureExtractor/MobilenetV2/expanded_conv_3/expand/Relu6: 3d418306
FeatureExtractor/MobilenetV2/expanded_conv_3/depthwise/depthwise: 3e2b0769
FeatureExtractor/MobilenetV2/expanded_conv_3/depthwise/BatchNorm/batchnorm/mul_1: 3e064459
FeatureExtractor/MobilenetV2/expanded_conv_3/depthwise/BatchNorm/batchnorm/add_1: 3d2c7bb0
FeatureExtractor/MobilenetV2/expanded_conv_3/depthwise/Relu6: 3d418306
FeatureExtractor/MobilenetV2/expanded_conv_3/project/Conv2D: 3e129a3d
FeatureExtractor/MobilenetV2/expanded_conv_3/project/BatchNorm/batchnorm/mul_1: 3e226343
FeatureExtractor/MobilenetV2/expanded_conv_3/project/BatchNorm/batchnorm/add_1: 3de41a0d
FeatureExtractor/MobilenetV2/expanded_conv_4/expand/Conv2D: 3e0071da
FeatureExtractor/MobilenetV2/expanded_conv_4/expand/BatchNorm/batchnorm/mul_1: 3d5ef9a3
FeatureExtractor/MobilenetV2/expanded_conv_4/expand/BatchNorm/batchnorm/add_1: 3d5d7800
FeatureExtractor/MobilenetV2/expanded_conv_4/expand/Relu6: 3d418306
FeatureExtractor/MobilenetV2/expanded_conv_4/depthwise/depthwise: 3d993abf
FeatureExtractor/MobilenetV2/expanded_conv_4/depthwise/BatchNorm/batchnorm/mul_1: 3dbeb968
FeatureExtractor/MobilenetV2/expanded_conv_4/depthwise/BatchNorm/batchnorm/add_1: 3d7e22ca
FeatureExtractor/MobilenetV2/expanded_conv_4/depthwise/Relu6: 3d418306
FeatureExtractor/MobilenetV2/expanded_conv_4/project/Conv2D: 3db93400
FeatureExtractor/MobilenetV2/expanded_conv_4/project/BatchNorm/batchnorm/mul_1: 3e03cdc6
FeatureExtractor/MobilenetV2/expanded_conv_4/project/BatchNorm/batchnorm/add_1: 3dce24aa
FeatureExtractor/MobilenetV2/expanded_conv_4/add: 3e0b182c
FeatureExtractor/MobilenetV2/expanded_conv_5/expand/Conv2D: 3e1c3d07
FeatureExtractor/MobilenetV2/expanded_conv_5/expand/BatchNorm/batchnorm/mul_1: 3d538ef9
FeatureExtractor/MobilenetV2/expanded_conv_5/expand/BatchNorm/batchnorm/add_1: 3d57da1a
FeatureExtractor/MobilenetV2/expanded_conv_5/expand/Relu6: 3d418306
FeatureExtractor/MobilenetV2/expanded_conv_5/depthwise/depthwise: 3d84b2bb
FeatureExtractor/MobilenetV2/expanded_conv_5/depthwise/BatchNorm/batchnorm/mul_1: 3dcdef5d
FeatureExtractor/MobilenetV2/expanded_conv_5/depthwise/BatchNorm/batchnorm/add_1: 3dce6a72
FeatureExtractor/MobilenetV2/expanded_conv_5/depthwise/Relu6: 3d418306
FeatureExtractor/MobilenetV2/expanded_conv_5/project/Conv2D: 3d86f2c1
FeatureExtractor/MobilenetV2/expanded_conv_5/project/BatchNorm/batchnorm/mul_1: 3e0991d6
FeatureExtractor/MobilenetV2/expanded_conv_5/project/BatchNorm/batchnorm/add_1: 3dddae19
FeatureExtractor/MobilenetV2/expanded_conv_5/add: 3e376329
FeatureExtractor/MobilenetV2/expanded_conv_6/expand/Conv2D: 3e56bbe6
FeatureExtractor/MobilenetV2/expanded_conv_6/expand/BatchNorm/batchnorm/mul_1: 3d610d13
FeatureExtractor/MobilenetV2/expanded_conv_6/expand/BatchNorm/batchnorm/add_1: 3d7064a3
FeatureExtractor/MobilenetV2/expanded_conv_6/expand/Relu6: 3d418306
FeatureExtractor/MobilenetV2/expanded_conv_6/depthwise/depthwise: 3dce2041
FeatureExtractor/MobilenetV2/expanded_conv_6/depthwise/BatchNorm/batchnorm/mul_1: 3d8e5d21
FeatureExtractor/MobilenetV2/expanded_conv_6/depthwise/BatchNorm/batchnorm/add_1: 3d032c18
FeatureExtractor/MobilenetV2/expanded_conv_6/depthwise/Relu6: 3d418306
FeatureExtractor/MobilenetV2/expanded_conv_6/project/Conv2D: 3e18f6fd
FeatureExtractor/MobilenetV2/expanded_conv_6/project/BatchNorm/batchnorm/mul_1: 3e0a1088
FeatureExtractor/MobilenetV2/expanded_conv_6/project/BatchNorm/batchnorm/add_1: 3db97b44
FeatureExtractor/MobilenetV2/expanded_conv_7/expand/Conv2D: 3db7596f
FeatureExtractor/MobilenetV2/expanded_conv_7/expand/BatchNorm/batchnorm/mul_1: 3d519c26
FeatureExtractor/MobilenetV2/expanded_conv_7/expand/BatchNorm/batchnorm/add_1: 3d70f258
FeatureExtractor/MobilenetV2/expanded_conv_7/expand/Relu6: 3d418306
FeatureExtractor/MobilenetV2/expanded_conv_7/depthwise/depthwise: 3d9ce848
FeatureExtractor/MobilenetV2/expanded_conv_7/depthwise/BatchNorm/batchnorm/mul_1: 3dfad2d8
FeatureExtractor/MobilenetV2/expanded_conv_7/depthwise/BatchNorm/batchnorm/add_1: 3e18faf8
FeatureExtractor/MobilenetV2/expanded_conv_7/depthwise/Relu6: 3d418306
FeatureExtractor/MobilenetV2/expanded_conv_7/project/Conv2D: 3d8a24df
FeatureExtractor/MobilenetV2/expanded_conv_7/project/BatchNorm/batchnorm/mul_1: 3dc00e95
FeatureExtractor/MobilenetV2/expanded_conv_7/project/BatchNorm/batchnorm/add_1: 3d94ade1
FeatureExtractor/MobilenetV2/expanded_conv_7/add: 3ddd2b78
FeatureExtractor/MobilenetV2/expanded_conv_8/expand/Conv2D: 3de44b5a
FeatureExtractor/MobilenetV2/expanded_conv_8/expand/BatchNorm/batchnorm/mul_1: 3da2c9fb
FeatureExtractor/MobilenetV2/expanded_conv_8/expand/BatchNorm/batchnorm/add_1: 3daac4a5
FeatureExtractor/MobilenetV2/expanded_conv_8/expand/Relu6: 3d418306
FeatureExtractor/MobilenetV2/expanded_conv_8/depthwise/depthwise: 3d5f1356
FeatureExtractor/MobilenetV2/expanded_conv_8/depthwise/BatchNorm/batchnorm/mul_1: 3daf8c85
FeatureExtractor/MobilenetV2/expanded_conv_8/depthwise/BatchNorm/batchnorm/add_1: 3dc4ad85
FeatureExtractor/MobilenetV2/expanded_conv_8/depthwise/Relu6: 3d418306
FeatureExtractor/MobilenetV2/expanded_conv_8/project/Conv2D: 3d8eb90e
FeatureExtractor/MobilenetV2/expanded_conv_8/project/BatchNorm/batchnorm/mul_1: 3dd42332
FeatureExtractor/MobilenetV2/expanded_conv_8/project/BatchNorm/batchnorm/add_1: 3d9d7bc7
FeatureExtractor/MobilenetV2/expanded_conv_8/add: 3e06ac34
FeatureExtractor/MobilenetV2/expanded_conv_9/expand/Conv2D: 3e1655a3
FeatureExtractor/MobilenetV2/expanded_conv_9/expand/BatchNorm/batchnorm/mul_1: 3d97cac6
FeatureExtractor/MobilenetV2/expanded_conv_9/expand/BatchNorm/batchnorm/add_1: 3d9f656b
FeatureExtractor/MobilenetV2/expanded_conv_9/expand/Relu6: 3d418306
FeatureExtractor/MobilenetV2/expanded_conv_9/depthwise/depthwise: 3d603a7a
FeatureExtractor/MobilenetV2/expanded_conv_9/depthwise/BatchNorm/batchnorm/mul_1: 3ded9436
FeatureExtractor/MobilenetV2/expanded_conv_9/depthwise/BatchNorm/batchnorm/add_1: 3ddb9059
FeatureExtractor/MobilenetV2/expanded_conv_9/depthwise/Relu6: 3d418306
FeatureExtractor/MobilenetV2/expanded_conv_9/project/Conv2D: 3d4848c5
FeatureExtractor/MobilenetV2/expanded_conv_9/project/BatchNorm/batchnorm/mul_1: 3e10f381
FeatureExtractor/MobilenetV2/expanded_conv_9/project/BatchNorm/batchnorm/add_1: 3dc5f8bc
FeatureExtractor/MobilenetV2/expanded_conv_9/add: 3e248d32
FeatureExtractor/MobilenetV2/expanded_conv_10/expand/Conv2D: 3e32029a
FeatureExtractor/MobilenetV2/expanded_conv_10/expand/BatchNorm/batchnorm/mul_1: 3d5ecfec
FeatureExtractor/MobilenetV2/expanded_conv_10/expand/BatchNorm/batchnorm/add_1: 3d6fffef
FeatureExtractor/MobilenetV2/expanded_conv_10/expand/Relu6: 3d418306
FeatureExtractor/MobilenetV2/expanded_conv_10/depthwise/depthwise: 3d846827
FeatureExtractor/MobilenetV2/expanded_conv_10/depthwise/BatchNorm/batchnorm/mul_1: 3d88863b
FeatureExtractor/MobilenetV2/expanded_conv_10/depthwise/BatchNorm/batchnorm/add_1: 3d047136
FeatureExtractor/MobilenetV2/expanded_conv_10/depthwise/Relu6: 3d418306
FeatureExtractor/MobilenetV2/expanded_conv_10/project/Conv2D: 3df73ded
FeatureExtractor/MobilenetV2/expanded_conv_10/project/BatchNorm/batchnorm/mul_1: 3e1d8d4f
FeatureExtractor/MobilenetV2/expanded_conv_10/project/BatchNorm/batchnorm/add_1: 3d8181ad
FeatureExtractor/MobilenetV2/expanded_conv_11/expand/Conv2D: 3dcba5fe
FeatureExtractor/MobilenetV2/expanded_conv_11/expand/BatchNorm/batchnorm/mul_1: 3d7b2d63
FeatureExtractor/MobilenetV2/expanded_conv_11/expand/BatchNorm/batchnorm/add_1: 3d793b49
FeatureExtractor/MobilenetV2/expanded_conv_11/expand/Relu6: 3d418306
FeatureExtractor/MobilenetV2/expanded_conv_11/depthwise/depthwise: 3d71e9e3
FeatureExtractor/MobilenetV2/expanded_conv_11/depthwise/BatchNorm/batchnorm/mul_1: 3dd27946
FeatureExtractor/MobilenetV2/expanded_conv_11/depthwise/BatchNorm/batchnorm/add_1: 3d9ce555
FeatureExtractor/MobilenetV2/expanded_conv_11/depthwise/Relu6: 3d418306
FeatureExtractor/MobilenetV2/expanded_conv_11/project/Conv2D: 3dd3259c
FeatureExtractor/MobilenetV2/expanded_conv_11/project/BatchNorm/batchnorm/mul_1: 3e4855fa
FeatureExtractor/MobilenetV2/expanded_conv_11/project/BatchNorm/batchnorm/add_1: 3e0a2450
FeatureExtractor/MobilenetV2/expanded_conv_11/add: 3e28fece
FeatureExtractor/MobilenetV2/expanded_conv_12/expand/Conv2D: 3e3a133a
FeatureExtractor/MobilenetV2/expanded_conv_12/expand/BatchNorm/batchnorm/mul_1: 3da61519
FeatureExtractor/MobilenetV2/expanded_conv_12/expand/BatchNorm/batchnorm/add_1: 3dbc279e
FeatureExtractor/MobilenetV2/expanded_conv_12/expand/Relu6: 3d418306
FeatureExtractor/MobilenetV2/expanded_conv_12/depthwise/depthwise: 3d84890e
FeatureExtractor/MobilenetV2/expanded_conv_12/depthwise/BatchNorm/batchnorm/mul_1: 3d967175
FeatureExtractor/MobilenetV2/expanded_conv_12/depthwise/BatchNorm/batchnorm/add_1: 3da774c1
FeatureExtractor/MobilenetV2/expanded_conv_12/depthwise/Relu6: 3d418306
FeatureExtractor/MobilenetV2/expanded_conv_12/project/Conv2D: 3d9a3b90
FeatureExtractor/MobilenetV2/expanded_conv_12/project/BatchNorm/batchnorm/mul_1: 3e33b608
FeatureExtractor/MobilenetV2/expanded_conv_12/project/BatchNorm/batchnorm/add_1: 3e07d430
FeatureExtractor/MobilenetV2/expanded_conv_12/add: 3e6e31c9
FeatureExtractor/MobilenetV2/expanded_conv_13/expand/Conv2D: 3e4efa56
FeatureExtractor/MobilenetV2/expanded_conv_13/expand/BatchNorm/batchnorm/mul_1: 3dcee9d9
FeatureExtractor/MobilenetV2/expanded_conv_13/expand/BatchNorm/batchnorm/add_1: 3dd9f0ef
FeatureExtractor/MobilenetV2/expanded_conv_13/expand/Relu6: 3d418306
FeatureExtractor/MobilenetV2/expanded_conv_13/depthwise/depthwise: 3d793930
BoxPredictor_loc_conf_0: 3ec98cfb
FeatureExtractor/MobilenetV2/expanded_conv_13/depthwise/BatchNorm/batchnorm/mul_1: 3d891384
FeatureExtractor/MobilenetV2/expanded_conv_13/depthwise/BatchNorm/batchnorm/add_1: 3cb5a727
FeatureExtractor/MobilenetV2/expanded_conv_13/depthwise/Relu6: 3d418306
FeatureExtractor/MobilenetV2/expanded_conv_13/project/Conv2D: 3e2a383b
FeatureExtractor/MobilenetV2/expanded_conv_13/project/BatchNorm/batchnorm/mul_1: 3e1ca1b7
FeatureExtractor/MobilenetV2/expanded_conv_13/project/BatchNorm/batchnorm/add_1: 3df2258c
FeatureExtractor/MobilenetV2/expanded_conv_14/expand/Conv2D: 3de1b3f5
FeatureExtractor/MobilenetV2/expanded_conv_14/expand/BatchNorm/batchnorm/mul_1: 3dcd4b2f
FeatureExtractor/MobilenetV2/expanded_conv_14/expand/BatchNorm/batchnorm/add_1: 3ddd5f12
FeatureExtractor/MobilenetV2/expanded_conv_14/expand/Relu6: 3d418306
FeatureExtractor/MobilenetV2/expanded_conv_14/depthwise/depthwise: 3d7ee4d1
FeatureExtractor/MobilenetV2/expanded_conv_14/depthwise/BatchNorm/batchnorm/mul_1: 3dc12f32
FeatureExtractor/MobilenetV2/expanded_conv_14/depthwise/BatchNorm/batchnorm/add_1: 3dc66d21
FeatureExtractor/MobilenetV2/expanded_conv_14/depthwise/Relu6: 3d418306
FeatureExtractor/MobilenetV2/expanded_conv_14/project/Conv2D: 3dcd4408
FeatureExtractor/MobilenetV2/expanded_conv_14/project/BatchNorm/batchnorm/mul_1: 3ddc3ee3
FeatureExtractor/MobilenetV2/expanded_conv_14/project/BatchNorm/batchnorm/add_1: 3dc21ae5
FeatureExtractor/MobilenetV2/expanded_conv_14/add: 3e2bc390
FeatureExtractor/MobilenetV2/expanded_conv_15/expand/Conv2D: 3e1e2f7d
FeatureExtractor/MobilenetV2/expanded_conv_15/expand/BatchNorm/batchnorm/mul_1: 3dc80bcb
FeatureExtractor/MobilenetV2/expanded_conv_15/expand/BatchNorm/batchnorm/add_1: 3dc39f0e
FeatureExtractor/MobilenetV2/expanded_conv_15/expand/Relu6: 3d418306
FeatureExtractor/MobilenetV2/expanded_conv_15/depthwise/depthwise: 3d3f42d9
FeatureExtractor/MobilenetV2/expanded_conv_15/depthwise/BatchNorm/batchnorm/mul_1: 3da6458d
FeatureExtractor/MobilenetV2/expanded_conv_15/depthwise/BatchNorm/batchnorm/add_1: 3dfd3676
FeatureExtractor/MobilenetV2/expanded_conv_15/depthwise/Relu6: 3d418306
FeatureExtractor/MobilenetV2/expanded_conv_15/project/Conv2D: 3db4251f
FeatureExtractor/MobilenetV2/expanded_conv_15/project/BatchNorm/batchnorm/mul_1: 3e2abec8
FeatureExtractor/MobilenetV2/expanded_conv_15/project/BatchNorm/batchnorm/add_1: 3e1c1782
FeatureExtractor/MobilenetV2/expanded_conv_15/add: 3e75f10c
FeatureExtractor/MobilenetV2/expanded_conv_16/expand/Conv2D: 3e8ebb73
FeatureExtractor/MobilenetV2/expanded_conv_16/expand/BatchNorm/batchnorm/mul_1: 3da08021
FeatureExtractor/MobilenetV2/expanded_conv_16/expand/BatchNorm/batchnorm/add_1: 3da48f8f
FeatureExtractor/MobilenetV2/expanded_conv_16/expand/Relu6: 3d418306
FeatureExtractor/MobilenetV2/expanded_conv_16/depthwise/depthwise: 3d4fd296
FeatureExtractor/MobilenetV2/expanded_conv_16/depthwise/BatchNorm/batchnorm/mul_1: 3deb5c46
FeatureExtractor/MobilenetV2/expanded_conv_16/depthwise/BatchNorm/batchnorm/add_1: 3e03cf1f
FeatureExtractor/MobilenetV2/expanded_conv_16/depthwise/Relu6: 3d418306
FeatureExtractor/MobilenetV2/expanded_conv_16/project/Conv2D: 3dd26cb1
FeatureExtractor/MobilenetV2/expanded_conv_16/project/BatchNorm/batchnorm/mul_1: 3e005e16
FeatureExtractor/MobilenetV2/expanded_conv_16/project/BatchNorm/batchnorm/add_1: 3dc9ae93
FeatureExtractor/MobilenetV2/Conv_1/Conv2D: 3d96db3e
FeatureExtractor/MobilenetV2/Conv_1/BatchNorm/batchnorm/mul_1: 3dcbb74d
FeatureExtractor/MobilenetV2/Conv_1/BatchNorm/batchnorm/add_1: 3df92689
FeatureExtractor/MobilenetV2/Conv_1/Relu6: 3d418306
FeatureExtractor/MobilenetV2/layer_19_1_Conv2d_2_1x1_256/Conv2D: 3db2dd7d
BoxPredictor_loc_conf_1: 3e8509bf
FeatureExtractor/MobilenetV2/layer_19_1_Conv2d_2_1x1_256/BatchNorm/batchnorm/mul_1: 3dbcb4f9
FeatureExtractor/MobilenetV2/layer_19_1_Conv2d_2_1x1_256/BatchNorm/batchnorm/add_1: 3db3433b
FeatureExtractor/MobilenetV2/layer_19_1_Conv2d_2_1x1_256/Relu6: 3d418306
FeatureExtractor/MobilenetV2/layer_19_2_Conv2d_2_3x3_s2_512_depthwise/depthwise: 3cbe57f4
FeatureExtractor/MobilenetV2/layer_19_2_Conv2d_2_3x3_s2_512_depthwise/BatchNorm/batchnorm/mul_1: 3e27c27e
FeatureExtractor/MobilenetV2/layer_19_2_Conv2d_2_3x3_s2_512_depthwise/BatchNorm/batchnorm/add_1: 3dd822b9
FeatureExtractor/MobilenetV2/layer_19_2_Conv2d_2_3x3_s2_512_depthwise/Relu6: 3d418306
FeatureExtractor/MobilenetV2/layer_19_2_Conv2d_2_3x3_s2_512/Conv2D: 3d3eb518
FeatureExtractor/MobilenetV2/layer_19_2_Conv2d_2_3x3_s2_512/BatchNorm/batchnorm/mul_1: 3e2b93a1
FeatureExtractor/MobilenetV2/layer_19_2_Conv2d_2_3x3_s2_512/BatchNorm/batchnorm/add_1: 3e02b8b2
FeatureExtractor/MobilenetV2/layer_19_2_Conv2d_2_3x3_s2_512/Relu6: 3d418306
FeatureExtractor/MobilenetV2/layer_19_1_Conv2d_3_1x1_128/Conv2D: 3d9bf7da
BoxPredictor_loc_conf_2: 3e36706d
FeatureExtractor/MobilenetV2/layer_19_1_Conv2d_3_1x1_128/BatchNorm/batchnorm/mul_1: 3d53262b
FeatureExtractor/MobilenetV2/layer_19_1_Conv2d_3_1x1_128/BatchNorm/batchnorm/add_1: 3d664ebc
FeatureExtractor/MobilenetV2/layer_19_1_Conv2d_3_1x1_128/Relu6: 3d418306
FeatureExtractor/MobilenetV2/layer_19_2_Conv2d_3_3x3_s2_256_depthwise/depthwise: 3c935400
FeatureExtractor/MobilenetV2/layer_19_2_Conv2d_3_3x3_s2_256_depthwise/BatchNorm/batchnorm/mul_1: 3dbac87f
FeatureExtractor/MobilenetV2/layer_19_2_Conv2d_3_3x3_s2_256_depthwise/BatchNorm/batchnorm/add_1: 3d5e7c27
FeatureExtractor/MobilenetV2/layer_19_2_Conv2d_3_3x3_s2_256_depthwise/Relu6: 3d418306
FeatureExtractor/MobilenetV2/layer_19_2_Conv2d_3_3x3_s2_256/Conv2D: 3d018083
FeatureExtractor/MobilenetV2/layer_19_2_Conv2d_3_3x3_s2_256/BatchNorm/batchnorm/mul_1: 3e1c6e4a
FeatureExtractor/MobilenetV2/layer_19_2_Conv2d_3_3x3_s2_256/BatchNorm/batchnorm/add_1: 3df9ba5a
FeatureExtractor/MobilenetV2/layer_19_2_Conv2d_3_3x3_s2_256/Relu6: 3d418306
FeatureExtractor/MobilenetV2/layer_19_1_Conv2d_4_1x1_128/Conv2D: 3d57357a
BoxPredictor_loc_conf_3: 3e35380b
FeatureExtractor/MobilenetV2/layer_19_1_Conv2d_4_1x1_128/BatchNorm/batchnorm/mul_1: 3d81a667
FeatureExtractor/MobilenetV2/layer_19_1_Conv2d_4_1x1_128/BatchNorm/batchnorm/add_1: 3d81f88d
FeatureExtractor/MobilenetV2/layer_19_1_Conv2d_4_1x1_128/Relu6: 3d418306
FeatureExtractor/MobilenetV2/layer_19_2_Conv2d_4_3x3_s2_256_depthwise/depthwise: 3c28558c
FeatureExtractor/MobilenetV2/layer_19_2_Conv2d_4_3x3_s2_256_depthwise/BatchNorm/batchnorm/mul_1: 3d53a417
FeatureExtractor/MobilenetV2/layer_19_2_Conv2d_4_3x3_s2_256_depthwise/BatchNorm/batchnorm/add_1: 3d345a21
FeatureExtractor/MobilenetV2/layer_19_2_Conv2d_4_3x3_s2_256_depthwise/Relu6: 3d418306
FeatureExtractor/MobilenetV2/layer_19_2_Conv2d_4_3x3_s2_256/Conv2D: 3c7b6c29
FeatureExtractor/MobilenetV2/layer_19_2_Conv2d_4_3x3_s2_256/BatchNorm/batchnorm/mul_1: 3e16a03a
FeatureExtractor/MobilenetV2/layer_19_2_Conv2d_4_3x3_s2_256/BatchNorm/batchnorm/add_1: 3ddaac26
FeatureExtractor/MobilenetV2/layer_19_2_Conv2d_4_3x3_s2_256/Relu6: 3d418306
FeatureExtractor/MobilenetV2/layer_19_1_Conv2d_5_1x1_64/Conv2D: 3d869755
BoxPredictor_loc_conf_4: 3e1f6ed6
FeatureExtractor/MobilenetV2/layer_19_1_Conv2d_5_1x1_64/BatchNorm/batchnorm/mul_1: 3cd49c1c
FeatureExtractor/MobilenetV2/layer_19_1_Conv2d_5_1x1_64/BatchNorm/batchnorm/add_1: 3cf85fea
FeatureExtractor/MobilenetV2/layer_19_1_Conv2d_5_1x1_64/Relu6: 3d418306
FeatureExtractor/MobilenetV2/layer_19_2_Conv2d_5_3x3_s2_128_depthwise/depthwise: 3bba994f
FeatureExtractor/MobilenetV2/layer_19_2_Conv2d_5_3x3_s2_128_depthwise/BatchNorm/batchnorm/mul_1: 3d14f1e0
FeatureExtractor/MobilenetV2/layer_19_2_Conv2d_5_3x3_s2_128_depthwise/BatchNorm/batchnorm/add_1: 3ceda390
FeatureExtractor/MobilenetV2/layer_19_2_Conv2d_5_3x3_s2_128_depthwise/Relu6: 3d418306
FeatureExtractor/MobilenetV2/layer_19_2_Conv2d_5_3x3_s2_128/Conv2D: 3ceb1b81
FeatureExtractor/MobilenetV2/layer_19_2_Conv2d_5_3x3_s2_128/BatchNorm/batchnorm/mul_1: 3e1d6778
FeatureExtractor/MobilenetV2/layer_19_2_Conv2d_5_3x3_s2_128/BatchNorm/batchnorm/add_1: 3dd1ad0a
FeatureExtractor/MobilenetV2/layer_19_2_Conv2d_5_3x3_s2_128/Relu6: 3d418306
BoxPredictor_loc_conf_5: 3e1cd6a9
Postprocessor_HL_1804289383: 3f7e0c18
