TRT-7203-EntropyCalibration2
Input: 3c010204
(Unnamed Layer* 503) [Constant]_output: 3a4fb8dc
FeatureExtractor/MobilenetV2/Conv/BatchNorm/batchnorm/mul_1: 3de969e3
FeatureExtractor/MobilenetV2/Conv/BatchNorm/batchnorm/add_1: 3d873b4c
FeatureExtractor/MobilenetV2/Conv/Relu6: 3d418306
FeatureExtractor/MobilenetV2/expanded_conv/depthwise/depthwise: 3edc29e9
FeatureExtractor/MobilenetV2/expanded_conv/depthwise/BatchNorm/batchnorm/mul_1: 3f032adf
FeatureExtractor/MobilenetV2/expanded_conv/depthwise/BatchNorm/batchnorm/add_1: 3e3e5bca
FeatureExtractor/MobilenetV2/expanded_conv/depthwise/Relu6: 3d418306
FeatureExtractor/MobilenetV2/expanded_conv/project/BatchNorm/batchnorm/mul_1: 3e7fd60e
FeatureExtractor/MobilenetV2/expanded_conv/project/BatchNorm/batchnorm/add_1: 3e1f278d
FeatureExtractor/MobilenetV2/expanded_conv_1/expand/BatchNorm/batchnorm/mul_1: 3de80a10
FeatureExtractor/MobilenetV2/expanded_conv_1/expand/BatchNorm/batchnorm/add_1: 3e1de9e1
FeatureExtractor/MobilenetV2/expanded_conv_1/expand/Relu6: 3d418306
FeatureExtractor/MobilenetV2/expanded_conv_1/depthwise/depthwise: 3e856ee8
FeatureExtractor/MobilenetV2/expanded_conv_1/depthwise/BatchNorm/batchnorm/mul_1: 3e284dd6
FeatureExtractor/MobilenetV2/expanded_conv_1/depthwise/BatchNorm/batchnorm/add_1: 3d9038a5
FeatureExtractor/MobilenetV2/expanded_conv_1/depthwise/Relu6: 3d418306
FeatureExtractor/MobilenetV2/expanded_conv_1/project/BatchNorm/batchnorm/mul_1: 3e832094
FeatureExtractor/MobilenetV2/expanded_conv_1/project/BatchNorm/batchnorm/add_1: 3e2dfe07
FeatureExtractor/MobilenetV2/expanded_conv_2/expand/BatchNorm/batchnorm/mul_1: 3db8ac36
FeatureExtractor/MobilenetV2/expanded_conv_2/expand/BatchNorm/batchnorm/add_1: 3dd6a191
FeatureExtractor/MobilenetV2/expanded_conv_2/expand/Relu6: 3d418306
FeatureExtractor/MobilenetV2/expanded_conv_2/depthwise/depthwise: 3e0ae391
FeatureExtractor/MobilenetV2/expanded_conv_2/depthwise/BatchNorm/batchnorm/mul_1: 3e187b1d
FeatureExtractor/MobilenetV2/expanded_conv_2/depthwise/BatchNorm/batchnorm/add_1: 3e06edeb
FeatureExtractor/MobilenetV2/expanded_conv_2/depthwise/Relu6: 3d418306
FeatureExtractor/MobilenetV2/expanded_conv_2/project/BatchNorm/batchnorm/mul_1: 3e86a9de
FeatureExtractor/MobilenetV2/expanded_conv_2/project/BatchNorm/batchnorm/add_1: 3e6bfe5c
FeatureExtractor/MobilenetV2/expanded_conv_2/add: 3e839c9f
FeatureExtractor/MobilenetV2/expanded_conv_3/expand/BatchNorm/batchnorm/mul_1: 3da1f13c
FeatureExtractor/MobilenetV2/expanded_conv_3/expand/BatchNorm/batchnorm/add_1: 3daf52ca
FeatureExtractor/MobilenetV2/expanded_conv_3/expand/Relu6: 3d418306
FeatureExtractor/MobilenetV2/expanded_conv_3/depthwise/depthwise: 3e596ca0
FeatureExtractor/MobilenetV2/expanded_conv_3/depthwise/BatchNorm/batchnorm/mul_1: 3e16915a
FeatureExtractor/MobilenetV2/expanded_conv_3/depthwise/BatchNorm/batchnorm/add_1: 3d4355a7
FeatureExtractor/MobilenetV2/expanded_conv_3/depthwise/Relu6: 3d418306
FeatureExtractor/MobilenetV2/expanded_conv_3/project/BatchNorm/batchnorm/mul_1: 3e3370c2
FeatureExtractor/MobilenetV2/expanded_conv_3/project/BatchNorm/batchnorm/add_1: 3df152c2
FeatureExtractor/MobilenetV2/expanded_conv_4/expand/BatchNorm/batchnorm/mul_1: 3d533a43
FeatureExtractor/MobilenetV2/expanded_conv_4/expand/BatchNorm/batchnorm/add_1: 3d7e8f4c
FeatureExtractor/MobilenetV2/expanded_conv_4/expand/Relu6: 3d418306
FeatureExtractor/MobilenetV2/expanded_conv_4/depthwise/depthwise: 3dcfaf00
FeatureExtractor/MobilenetV2/expanded_conv_4/depthwise/BatchNorm/batchnorm/mul_1: 3e0dfa6b
FeatureExtractor/MobilenetV2/expanded_conv_4/depthwise/BatchNorm/batchnorm/add_1: 3df57e66
FeatureExtractor/MobilenetV2/expanded_conv_4/depthwise/Relu6: 3d418306
FeatureExtractor/MobilenetV2/expanded_conv_4/project/BatchNorm/batchnorm/mul_1: 3e7a2146
FeatureExtractor/MobilenetV2/expanded_conv_4/project/BatchNorm/batchnorm/add_1: 3e3fd32d
FeatureExtractor/MobilenetV2/expanded_conv_4/add: 3e43cc03
FeatureExtractor/MobilenetV2/expanded_conv_5/expand/BatchNorm/batchnorm/mul_1: 3d71b51c
FeatureExtractor/MobilenetV2/expanded_conv_5/expand/BatchNorm/batchnorm/add_1: 3d907be4
FeatureExtractor/MobilenetV2/expanded_conv_5/expand/Relu6: 3d418306
FeatureExtractor/MobilenetV2/expanded_conv_5/depthwise/depthwise: 3de1705b
FeatureExtractor/MobilenetV2/expanded_conv_5/depthwise/BatchNorm/batchnorm/mul_1: 3df3ae7f
FeatureExtractor/MobilenetV2/expanded_conv_5/depthwise/BatchNorm/batchnorm/add_1: 3ddb6407
FeatureExtractor/MobilenetV2/expanded_conv_5/depthwise/Relu6: 3d418306
FeatureExtractor/MobilenetV2/expanded_conv_5/project/BatchNorm/batchnorm/mul_1: 3e469be5
FeatureExtractor/MobilenetV2/expanded_conv_5/project/BatchNorm/batchnorm/add_1: 3e1db618
FeatureExtractor/MobilenetV2/expanded_conv_5/add: 3e5c7979
FeatureExtractor/MobilenetV2/expanded_conv_6/expand/BatchNorm/batchnorm/mul_1: 3d81686a
FeatureExtractor/MobilenetV2/expanded_conv_6/expand/BatchNorm/batchnorm/add_1: 3d94ef5a
FeatureExtractor/MobilenetV2/expanded_conv_6/expand/Relu6: 3d418306
FeatureExtractor/MobilenetV2/expanded_conv_6/depthwise/depthwise: 3e066ba5
FeatureExtractor/MobilenetV2/expanded_conv_6/depthwise/BatchNorm/batchnorm/mul_1: 3d9e66db
FeatureExtractor/MobilenetV2/expanded_conv_6/depthwise/BatchNorm/batchnorm/add_1: 3d27af9b
FeatureExtractor/MobilenetV2/expanded_conv_6/depthwise/Relu6: 3d418306
FeatureExtractor/MobilenetV2/expanded_conv_6/project/BatchNorm/batchnorm/mul_1: 3e1bc5f2
FeatureExtractor/MobilenetV2/expanded_conv_6/project/BatchNorm/batchnorm/add_1: 3de81651
FeatureExtractor/MobilenetV2/expanded_conv_7/expand/BatchNorm/batchnorm/mul_1: 3d92fc2f
FeatureExtractor/MobilenetV2/expanded_conv_7/expand/BatchNorm/batchnorm/add_1: 3d94cc71
FeatureExtractor/MobilenetV2/expanded_conv_7/expand/Relu6: 3d418306
FeatureExtractor/MobilenetV2/expanded_conv_7/depthwise/depthwise: 3dc7438f
FeatureExtractor/MobilenetV2/expanded_conv_7/depthwise/BatchNorm/batchnorm/mul_1: 3e397917
FeatureExtractor/MobilenetV2/expanded_conv_7/depthwise/BatchNorm/batchnorm/add_1: 3e6d7762
FeatureExtractor/MobilenetV2/expanded_conv_7/depthwise/Relu6: 3d418306
FeatureExtractor/MobilenetV2/expanded_conv_7/project/BatchNorm/batchnorm/mul_1: 3de382c5
FeatureExtractor/MobilenetV2/expanded_conv_7/project/BatchNorm/batchnorm/add_1: 3db5481b
FeatureExtractor/MobilenetV2/expanded_conv_7/add: 3e038ced
FeatureExtractor/MobilenetV2/expanded_conv_8/expand/BatchNorm/batchnorm/mul_1: 3d9120c8
FeatureExtractor/MobilenetV2/expanded_conv_8/expand/BatchNorm/batchnorm/add_1: 3d8f4628
FeatureExtractor/MobilenetV2/expanded_conv_8/expand/Relu6: 3d418306
FeatureExtractor/MobilenetV2/expanded_conv_8/depthwise/depthwise: 3dc14571
FeatureExtractor/MobilenetV2/expanded_conv_8/depthwise/BatchNorm/batchnorm/mul_1: 3e053022
FeatureExtractor/MobilenetV2/expanded_conv_8/depthwise/BatchNorm/batchnorm/add_1: 3d222a88
FeatureExtractor/MobilenetV2/expanded_conv_8/depthwise/Relu6: 3d418306
FeatureExtractor/MobilenetV2/expanded_conv_8/project/BatchNorm/batchnorm/mul_1: 3e1e529d
FeatureExtractor/MobilenetV2/expanded_conv_8/project/BatchNorm/batchnorm/add_1: 3dd0b0e3
FeatureExtractor/MobilenetV2/expanded_conv_8/add: 3e24ad63
FeatureExtractor/MobilenetV2/expanded_conv_9/expand/BatchNorm/batchnorm/mul_1: 3dcbde41
FeatureExtractor/MobilenetV2/expanded_conv_9/expand/BatchNorm/batchnorm/add_1: 3de0882d
FeatureExtractor/MobilenetV2/expanded_conv_9/expand/Relu6: 3d418306
FeatureExtractor/MobilenetV2/expanded_conv_9/depthwise/depthwise: 3dcfeca4
FeatureExtractor/MobilenetV2/expanded_conv_9/depthwise/BatchNorm/batchnorm/mul_1: 3dc99654
FeatureExtractor/MobilenetV2/expanded_conv_9/depthwise/BatchNorm/batchnorm/add_1: 3e12eb57
FeatureExtractor/MobilenetV2/expanded_conv_9/depthwise/Relu6: 3d418306
FeatureExtractor/MobilenetV2/expanded_conv_9/project/BatchNorm/batchnorm/mul_1: 3e42ebbc
FeatureExtractor/MobilenetV2/expanded_conv_9/project/BatchNorm/batchnorm/add_1: 3e226a11
FeatureExtractor/MobilenetV2/expanded_conv_9/add: 3e40fc1c
FeatureExtractor/MobilenetV2/expanded_conv_10/expand/BatchNorm/batchnorm/mul_1: 3d86073f
FeatureExtractor/MobilenetV2/expanded_conv_10/expand/BatchNorm/batchnorm/add_1: 3d89d876
FeatureExtractor/MobilenetV2/expanded_conv_10/expand/Relu6: 3d418306
FeatureExtractor/MobilenetV2/expanded_conv_10/depthwise/depthwise: 3de00281
FeatureExtractor/MobilenetV2/expanded_conv_10/depthwise/BatchNorm/batchnorm/mul_1: 3d8a1c9c
FeatureExtractor/MobilenetV2/expanded_conv_10/depthwise/BatchNorm/batchnorm/add_1: 3d039d30
FeatureExtractor/MobilenetV2/expanded_conv_10/depthwise/Relu6: 3d418306
FeatureExtractor/MobilenetV2/expanded_conv_10/project/BatchNorm/batchnorm/mul_1: 3df25477
FeatureExtractor/MobilenetV2/expanded_conv_10/project/BatchNorm/batchnorm/add_1: 3da0f49d
FeatureExtractor/MobilenetV2/expanded_conv_11/expand/BatchNorm/batchnorm/mul_1: 3dc2bcea
FeatureExtractor/MobilenetV2/expanded_conv_11/expand/BatchNorm/batchnorm/add_1: 3dc9a728
FeatureExtractor/MobilenetV2/expanded_conv_11/expand/Relu6: 3d418306
FeatureExtractor/MobilenetV2/expanded_conv_11/depthwise/depthwise: 3d939c9f
FeatureExtractor/MobilenetV2/expanded_conv_11/depthwise/BatchNorm/batchnorm/mul_1: 3de632fe
FeatureExtractor/MobilenetV2/expanded_conv_11/depthwise/BatchNorm/batchnorm/add_1: 3d3c1099
FeatureExtractor/MobilenetV2/expanded_conv_11/depthwise/Relu6: 3d418306
FeatureExtractor/MobilenetV2/expanded_conv_11/project/BatchNorm/batchnorm/mul_1: 3e5da1c3
FeatureExtractor/MobilenetV2/expanded_conv_11/project/BatchNorm/batchnorm/add_1: 3ddd2b59
FeatureExtractor/MobilenetV2/expanded_conv_11/add: 3e37e734
FeatureExtractor/MobilenetV2/expanded_conv_12/expand/BatchNorm/batchnorm/mul_1: 3da9d462
FeatureExtractor/MobilenetV2/expanded_conv_12/expand/BatchNorm/batchnorm/add_1: 3daf8d3a
FeatureExtractor/MobilenetV2/expanded_conv_12/expand/Relu6: 3d418306
FeatureExtractor/MobilenetV2/expanded_conv_12/depthwise/depthwise: 3d8a4e24
FeatureExtractor/MobilenetV2/expanded_conv_12/depthwise/BatchNorm/batchnorm/mul_1: 3df2f106
FeatureExtractor/MobilenetV2/expanded_conv_12/depthwise/BatchNorm/batchnorm/add_1: 3d83ad3e
FeatureExtractor/MobilenetV2/expanded_conv_12/depthwise/Relu6: 3d418306
FeatureExtractor/MobilenetV2/expanded_conv_12/project/BatchNorm/batchnorm/mul_1: 3eba538c
FeatureExtractor/MobilenetV2/expanded_conv_12/project/BatchNorm/batchnorm/add_1: 3e6b144a
FeatureExtractor/MobilenetV2/expanded_conv_12/add: 3ea14b41
FeatureExtractor/MobilenetV2/expanded_conv_13/expand/BatchNorm/batchnorm/mul_1: 3dd96d15
FeatureExtractor/MobilenetV2/expanded_conv_13/expand/BatchNorm/batchnorm/add_1: 3df09bb5
FeatureExtractor/MobilenetV2/expanded_conv_13/expand/Relu6: 3d418306
BoxPredictor_0/BoxEncodingPredictor_depthwise/depthwise: 3c8c3107
FeatureExtractor/MobilenetV2/expanded_conv_13/depthwise/depthwise: 3de2fb4e
BoxPredictor_0/ClassPredictor_depthwise/depthwise: 3cbf4fb9
BoxPredictor_0/BoxEncodingPredictor_depthwise/BatchNorm/FusedBatchNorm: 3d89165c
FeatureExtractor/MobilenetV2/expanded_conv_13/depthwise/BatchNorm/batchnorm/mul_1: 3e005b03
BoxPredictor_0/ClassPredictor_depthwise/BatchNorm/FusedBatchNorm: 3d9d88c1
BoxPredictor_0/BoxEncodingPredictor_depthwise/Relu6: 3d418306
FeatureExtractor/MobilenetV2/expanded_conv_13/depthwise/BatchNorm/batchnorm/add_1: 3cf2cc76
BoxPredictor_0/ClassPredictor_depthwise/Relu6: 3d418306
BoxPredictor_0/BoxEncodingPredictor/Conv2D: 3e00e123
FeatureExtractor/MobilenetV2/expanded_conv_13/depthwise/Relu6: 3d418306
BoxPredictor_0/ClassPredictor/Conv2D: 3e3d2e61
BoxPredictor_0/BoxEncodingPredictor/BiasAdd: 3e633f35
FeatureExtractor/MobilenetV2/expanded_conv_13/project/BatchNorm/batchnorm/mul_1: 3e0e5b94
BoxPredictor_0/ClassPredictor/BiasAdd: 3e633f35
FeatureExtractor/MobilenetV2/expanded_conv_13/project/BatchNorm/batchnorm/add_1: 3dd09db4
BoxPredictor_loc_conf_0: 3e633f35
FeatureExtractor/MobilenetV2/expanded_conv_14/expand/BatchNorm/batchnorm/mul_1: 3da59135
FeatureExtractor/MobilenetV2/expanded_conv_14/expand/BatchNorm/batchnorm/add_1: 3daf8d1e
FeatureExtractor/MobilenetV2/expanded_conv_14/expand/Relu6: 3d418306
FeatureExtractor/MobilenetV2/expanded_conv_14/depthwise/depthwise: 3d916369
FeatureExtractor/MobilenetV2/expanded_conv_14/depthwise/BatchNorm/batchnorm/mul_1: 3e030e3a
FeatureExtractor/MobilenetV2/expanded_conv_14/depthwise/BatchNorm/batchnorm/add_1: 3e121387
FeatureExtractor/MobilenetV2/expanded_conv_14/depthwise/Relu6: 3d418306
FeatureExtractor/MobilenetV2/expanded_conv_14/project/BatchNorm/batchnorm/mul_1: 3e1f29c6
FeatureExtractor/MobilenetV2/expanded_conv_14/project/BatchNorm/batchnorm/add_1: 3e142f1f
FeatureExtractor/MobilenetV2/expanded_conv_14/add: 3e253671
FeatureExtractor/MobilenetV2/expanded_conv_15/expand/BatchNorm/batchnorm/mul_1: 3dc1c801
FeatureExtractor/MobilenetV2/expanded_conv_15/expand/BatchNorm/batchnorm/add_1: 3dc5d47d
FeatureExtractor/MobilenetV2/expanded_conv_15/expand/Relu6: 3d418306
FeatureExtractor/MobilenetV2/expanded_conv_15/depthwise/depthwise: 3d64322d
FeatureExtractor/MobilenetV2/expanded_conv_15/depthwise/BatchNorm/batchnorm/mul_1: 3df9f1d0
FeatureExtractor/MobilenetV2/expanded_conv_15/depthwise/BatchNorm/batchnorm/add_1: 3dfcd4f2
FeatureExtractor/MobilenetV2/expanded_conv_15/depthwise/Relu6: 3d418306
FeatureExtractor/MobilenetV2/expanded_conv_15/project/BatchNorm/batchnorm/mul_1: 3e66fbd9
FeatureExtractor/MobilenetV2/expanded_conv_15/project/BatchNorm/batchnorm/add_1: 3e3d29a5
FeatureExtractor/MobilenetV2/expanded_conv_15/add: 3e77c16f
FeatureExtractor/MobilenetV2/expanded_conv_16/expand/BatchNorm/batchnorm/mul_1: 3dbe012f
FeatureExtractor/MobilenetV2/expanded_conv_16/expand/BatchNorm/batchnorm/add_1: 3dc1a205
FeatureExtractor/MobilenetV2/expanded_conv_16/expand/Relu6: 3d418306
FeatureExtractor/MobilenetV2/expanded_conv_16/depthwise/depthwise: 3d7a6aa6
FeatureExtractor/MobilenetV2/expanded_conv_16/depthwise/BatchNorm/batchnorm/mul_1: 3dc6f3b3
FeatureExtractor/MobilenetV2/expanded_conv_16/depthwise/BatchNorm/batchnorm/add_1: 3dbd3824
FeatureExtractor/MobilenetV2/expanded_conv_16/depthwise/Relu6: 3d418306
FeatureExtractor/MobilenetV2/expanded_conv_16/project/BatchNorm/batchnorm/mul_1: 3e21b9a2
FeatureExtractor/MobilenetV2/expanded_conv_16/project/BatchNorm/batchnorm/add_1: 3dfba9d8
FeatureExtractor/MobilenetV2/Conv_1/BatchNorm/batchnorm/mul_1: 3db2293f
FeatureExtractor/MobilenetV2/Conv_1/BatchNorm/batchnorm/add_1: 3e04ed52
FeatureExtractor/MobilenetV2/Conv_1/Relu6: 3d418306
BoxPredictor_1/BoxEncodingPredictor_depthwise/depthwise: 3b8f72db
FeatureExtractor/MobilenetV2/layer_19_1_Conv2d_2_1x1_256/BatchNorm/batchnorm/mul_1: 3e0ac257
BoxPredictor_1/ClassPredictor_depthwise/depthwise: 3c2c2c11
BoxPredictor_1/BoxEncodingPredictor_depthwise/BatchNorm/FusedBatchNorm: 3d42aad8
FeatureExtractor/MobilenetV2/layer_19_1_Conv2d_2_1x1_256/BatchNorm/batchnorm/add_1: 3df51e00
BoxPredictor_1/ClassPredictor_depthwise/BatchNorm/FusedBatchNorm: 3dbe4969
BoxPredictor_1/BoxEncodingPredictor_depthwise/Relu6: 3d418306
FeatureExtractor/MobilenetV2/layer_19_1_Conv2d_2_1x1_256/Relu6: 3d418306
BoxPredictor_1/ClassPredictor_depthwise/Relu6: 3d418306
BoxPredictor_1/BoxEncodingPredictor/Conv2D: 3d7ba438
FeatureExtractor/MobilenetV2/layer_19_2_Conv2d_2_3x3_s2_512_depthwise/depthwise: 3c98c2de
BoxPredictor_1/ClassPredictor/Conv2D: 3e81bc3e
BoxPredictor_1/BoxEncodingPredictor/BiasAdd: 3e923cef
FeatureExtractor/MobilenetV2/layer_19_2_Conv2d_2_3x3_s2_512_depthwise/BatchNorm/batchnorm/mul_1: 3db49ae4
BoxPredictor_1/ClassPredictor/BiasAdd: 3e923cef
FeatureExtractor/MobilenetV2/layer_19_2_Conv2d_2_3x3_s2_512_depthwise/BatchNorm/batchnorm/add_1: 3d7cf784
BoxPredictor_loc_conf_1: 3e923cef
FeatureExtractor/MobilenetV2/layer_19_2_Conv2d_2_3x3_s2_512_depthwise/Relu6: 3d418306
FeatureExtractor/MobilenetV2/layer_19_2_Conv2d_2_3x3_s2_512/BatchNorm/batchnorm/mul_1: 3de33130
FeatureExtractor/MobilenetV2/layer_19_2_Conv2d_2_3x3_s2_512/BatchNorm/batchnorm/add_1: 3df3a5df
FeatureExtractor/MobilenetV2/layer_19_2_Conv2d_2_3x3_s2_512/Relu6: 3d418306
BoxPredictor_2/BoxEncodingPredictor_depthwise/depthwise: 3b7a4e5d
FeatureExtractor/MobilenetV2/layer_19_1_Conv2d_3_1x1_128/BatchNorm/batchnorm/mul_1: 3d6b469a
BoxPredictor_2/ClassPredictor_depthwise/depthwise: 3c02da3d
BoxPredictor_2/BoxEncodingPredictor_depthwise/BatchNorm/FusedBatchNorm: 3d75d0a1
FeatureExtractor/MobilenetV2/layer_19_1_Conv2d_3_1x1_128/BatchNorm/batchnorm/add_1: 3d745ed7
BoxPredictor_2/ClassPredictor_depthwise/BatchNorm/FusedBatchNorm: 3e333676
BoxPredictor_2/BoxEncodingPredictor_depthwise/Relu6: 3d418306
FeatureExtractor/MobilenetV2/layer_19_1_Conv2d_3_1x1_128/Relu6: 3d418306
BoxPredictor_2/ClassPredictor_depthwise/Relu6: 3d418306
BoxPredictor_2/BoxEncodingPredictor/Conv2D: 3d1bc3dd
FeatureExtractor/MobilenetV2/layer_19_2_Conv2d_3_3x3_s2_256_depthwise/depthwise: 3ca33421
BoxPredictor_2/ClassPredictor/Conv2D: 3e2c18ab
BoxPredictor_2/BoxEncodingPredictor/BiasAdd: 3e3ff809
FeatureExtractor/MobilenetV2/layer_19_2_Conv2d_3_3x3_s2_256_depthwise/BatchNorm/batchnorm/mul_1: 3ddd718f
BoxPredictor_2/ClassPredictor/BiasAdd: 3e3ff809
FeatureExtractor/MobilenetV2/layer_19_2_Conv2d_3_3x3_s2_256_depthwise/BatchNorm/batchnorm/add_1: 3d9b17cf
BoxPredictor_loc_conf_2: 3e3ff809
FeatureExtractor/MobilenetV2/layer_19_2_Conv2d_3_3x3_s2_256_depthwise/Relu6: 3d418306
FeatureExtractor/MobilenetV2/layer_19_2_Conv2d_3_3x3_s2_256/BatchNorm/batchnorm/mul_1: 3d97c2ec
FeatureExtractor/MobilenetV2/layer_19_2_Conv2d_3_3x3_s2_256/BatchNorm/batchnorm/add_1: 3d8ddb57
FeatureExtractor/MobilenetV2/layer_19_2_Conv2d_3_3x3_s2_256/Relu6: 3d418306
BoxPredictor_3/BoxEncodingPredictor_depthwise/depthwise: 3bc86672
FeatureExtractor/MobilenetV2/layer_19_1_Conv2d_4_1x1_128/BatchNorm/batchnorm/mul_1: 3d62a79e
BoxPredictor_3/ClassPredictor_depthwise/depthwise: 3c42230f
BoxPredictor_3/BoxEncodingPredictor_depthwise/BatchNorm/FusedBatchNorm: 3d846b3b
FeatureExtractor/MobilenetV2/layer_19_1_Conv2d_4_1x1_128/BatchNorm/batchnorm/add_1: 3d614796
BoxPredictor_3/ClassPredictor_depthwise/BatchNorm/FusedBatchNorm: 3e4b2080
BoxPredictor_3/BoxEncodingPredictor_depthwise/Relu6: 3d418306
FeatureExtractor/MobilenetV2/layer_19_1_Conv2d_4_1x1_128/Relu6: 3d418306
BoxPredictor_3/ClassPredictor_depthwise/Relu6: 3d418306
BoxPredictor_3/BoxEncodingPredictor/Conv2D: 3d10e731
FeatureExtractor/MobilenetV2/layer_19_2_Conv2d_4_3x3_s2_256_depthwise/depthwise: 3c1706e6
BoxPredictor_3/ClassPredictor/Conv2D: 3e1d2016
BoxPredictor_3/BoxEncodingPredictor/BiasAdd: 3e2138eb
FeatureExtractor/MobilenetV2/layer_19_2_Conv2d_4_3x3_s2_256_depthwise/BatchNorm/batchnorm/mul_1: 3d203442
BoxPredictor_3/ClassPredictor/BiasAdd: 3e2138eb
FeatureExtractor/MobilenetV2/layer_19_2_Conv2d_4_3x3_s2_256_depthwise/BatchNorm/batchnorm/add_1: 3d42a916
BoxPredictor_loc_conf_3: 3e2138eb
FeatureExtractor/MobilenetV2/layer_19_2_Conv2d_4_3x3_s2_256_depthwise/Relu6: 3d418306
FeatureExtractor/MobilenetV2/layer_19_2_Conv2d_4_3x3_s2_256/BatchNorm/batchnorm/mul_1: 3dbe3a1a
FeatureExtractor/MobilenetV2/layer_19_2_Conv2d_4_3x3_s2_256/BatchNorm/batchnorm/add_1: 3d8f476b
FeatureExtractor/MobilenetV2/layer_19_2_Conv2d_4_3x3_s2_256/Relu6: 3d418306
BoxPredictor_4/BoxEncodingPredictor_depthwise/depthwise: 3b473676
FeatureExtractor/MobilenetV2/layer_19_1_Conv2d_5_1x1_64/BatchNorm/batchnorm/mul_1: 3d091ccd
BoxPredictor_4/ClassPredictor_depthwise/depthwise: 3bb18162
BoxPredictor_4/BoxEncodingPredictor_depthwise/BatchNorm/FusedBatchNorm: 3d5c4f1a
FeatureExtractor/MobilenetV2/layer_19_1_Conv2d_5_1x1_64/BatchNorm/batchnorm/add_1: 3d11c954
BoxPredictor_4/ClassPredictor_depthwise/BatchNorm/FusedBatchNorm: 3e253b86
BoxPredictor_4/BoxEncodingPredictor_depthwise/Relu6: 3d418306
FeatureExtractor/MobilenetV2/layer_19_1_Conv2d_5_1x1_64/Relu6: 3d418306
BoxPredictor_4/ClassPredictor_depthwise/Relu6: 3d418306
BoxPredictor_4/BoxEncodingPredictor/Conv2D: 3cad3bb7
FeatureExtractor/MobilenetV2/layer_19_2_Conv2d_5_3x3_s2_128_depthwise/depthwise: 3bda166f
BoxPredictor_4/ClassPredictor/Conv2D: 3e099943
BoxPredictor_4/BoxEncodingPredictor/BiasAdd: 3e0b86c1
FeatureExtractor/MobilenetV2/layer_19_2_Conv2d_5_3x3_s2_128_depthwise/BatchNorm/batchnorm/mul_1: 3d82dcf2
BoxPredictor_4/ClassPredictor/BiasAdd: 3e0b86c1
FeatureExtractor/MobilenetV2/layer_19_2_Conv2d_5_3x3_s2_128_depthwise/BatchNorm/batchnorm/add_1: 3d90d5a0
BoxPredictor_loc_conf_4: 3e0b86c1
FeatureExtractor/MobilenetV2/layer_19_2_Conv2d_5_3x3_s2_128_depthwise/Relu6: 3d418306
FeatureExtractor/MobilenetV2/layer_19_2_Conv2d_5_3x3_s2_128/BatchNorm/batchnorm/mul_1: 3da0591e
FeatureExtractor/MobilenetV2/layer_19_2_Conv2d_5_3x3_s2_128/BatchNorm/batchnorm/add_1: 3d467fb1
FeatureExtractor/MobilenetV2/layer_19_2_Conv2d_5_3x3_s2_128/Relu6: 3d418306
BoxPredictor_5/BoxEncodingPredictor_depthwise/depthwise: 3b315ec6
BoxPredictor_5/ClassPredictor_depthwise/depthwise: 3bb92249
BoxPredictor_5/BoxEncodingPredictor_depthwise/BatchNorm/FusedBatchNorm: 3d5f083e
BoxPredictor_5/ClassPredictor_depthwise/BatchNorm/FusedBatchNorm: 3d93c887
BoxPredictor_5/BoxEncodingPredictor_depthwise/Relu6: 3d418306
BoxPredictor_5/ClassPredictor_depthwise/Relu6: 3d418306
BoxPredictor_5/BoxEncodingPredictor/Conv2D: 3cbb38c8
BoxPredictor_5/ClassPredictor/Conv2D: 3e0c48c8
BoxPredictor_5/BoxEncodingPredictor/BiasAdd: 3e0f219a
BoxPredictor_5/ClassPredictor/BiasAdd: 3e0f219a
BoxPredictor_loc_conf_5: 3e0f219a
Postprocessor_HL_1804289383: 3f7e0c18
