TRT-7203-EntropyCalibration2
Input: 3c010204
(Unnamed Layer* 467) [Constant]_output: 3a4fb8dc
FeatureExtractor/InceptionV2/InceptionV2/Conv2d_1a_7x7/separable_conv2d/depthwise: 3e031de7
FeatureExtractor/InceptionV2/InceptionV2/Conv2d_1a_7x7/separable_conv2d: 3e167ddc
FeatureExtractor/InceptionV2/InceptionV2/Conv2d_1a_7x7/BatchNorm/FusedBatchNorm: 3e42207a
FeatureExtractor/InceptionV2/InceptionV2/Conv2d_1a_7x7/Relu6: 3d418306
FeatureExtractor/InceptionV2/InceptionV2/MaxPool_2a_3x3/MaxPool: 3d418f1e
FeatureExtractor/InceptionV2/InceptionV2/Conv2d_2b_1x1/Conv2D: 3e800d4e
FeatureExtractor/InceptionV2/InceptionV2/Conv2d_2b_1x1/BatchNorm/FusedBatchNorm: 3e462303
FeatureExtractor/InceptionV2/InceptionV2/Conv2d_2b_1x1/Relu6: 3d418306
FeatureExtractor/InceptionV2/InceptionV2/Conv2d_2c_3x3/Conv2D: 3e14593b
FeatureExtractor/InceptionV2/InceptionV2/Conv2d_2c_3x3/BatchNorm/FusedBatchNorm: 3de1d916
FeatureExtractor/InceptionV2/InceptionV2/Conv2d_2c_3x3/Relu6: 3d418306
FeatureExtractor/InceptionV2/InceptionV2/MaxPool_3a_3x3/MaxPool: 3d418f1e
FeatureExtractor/InceptionV2/InceptionV2/Mixed_3b/Branch_0/Conv2d_0a_1x1/Conv2D: 3dccbdc9
FeatureExtractor/InceptionV2/InceptionV2/Mixed_3b/Branch_1/Conv2d_0a_1x1/Conv2D: 3dce10a4
FeatureExtractor/InceptionV2/InceptionV2/Mixed_3b/Branch_2/Conv2d_0a_1x1/Conv2D: 3e170215
FeatureExtractor/InceptionV2/InceptionV2/Mixed_3b/Branch_3/AvgPool_0a_3x3/AvgPool: 3d418f1e
FeatureExtractor/InceptionV2/InceptionV2/Mixed_3b/Branch_0/Conv2d_0a_1x1/BatchNorm/FusedBatchNorm: 3d9c6d58
FeatureExtractor/InceptionV2/InceptionV2/Mixed_3b/Branch_1/Conv2d_0a_1x1/BatchNorm/FusedBatchNorm: 3dab8451
FeatureExtractor/InceptionV2/InceptionV2/Mixed_3b/Branch_2/Conv2d_0a_1x1/BatchNorm/FusedBatchNorm: 3dc3cb8d
FeatureExtractor/InceptionV2/InceptionV2/Mixed_3b/Branch_3/Conv2d_0b_1x1/Conv2D: 3e028d3e
FeatureExtractor/InceptionV2/InceptionV2/Mixed_3b/Branch_0/Conv2d_0a_1x1/Relu6: 3d418306
FeatureExtractor/InceptionV2/InceptionV2/Mixed_3b/Branch_1/Conv2d_0a_1x1/Relu6: 3d418306
FeatureExtractor/InceptionV2/InceptionV2/Mixed_3b/Branch_2/Conv2d_0a_1x1/Relu6: 3d418306
FeatureExtractor/InceptionV2/InceptionV2/Mixed_3b/Branch_3/Conv2d_0b_1x1/BatchNorm/FusedBatchNorm: 3dea5b65
FeatureExtractor/InceptionV2/InceptionV2/Mixed_3b/Branch_1/Conv2d_0b_3x3/Conv2D: 3da3ccd8
FeatureExtractor/InceptionV2/InceptionV2/Mixed_3b/Branch_2/Conv2d_0b_3x3/Conv2D: 3e044b71
FeatureExtractor/InceptionV2/InceptionV2/Mixed_3b/Branch_3/Conv2d_0b_1x1/Relu6: 3d418306
FeatureExtractor/InceptionV2/InceptionV2/Mixed_3b/Branch_1/Conv2d_0b_3x3/BatchNorm/FusedBatchNorm: 3da3fac2
FeatureExtractor/InceptionV2/InceptionV2/Mixed_3b/Branch_2/Conv2d_0b_3x3/BatchNorm/FusedBatchNorm: 3dc9553d
FeatureExtractor/InceptionV2/InceptionV2/Mixed_3b/Branch_1/Conv2d_0b_3x3/Relu6: 3d418306
FeatureExtractor/InceptionV2/InceptionV2/Mixed_3b/Branch_2/Conv2d_0b_3x3/Relu6: 3d418306
FeatureExtractor/InceptionV2/InceptionV2/Mixed_3b/Branch_2/Conv2d_0c_3x3/Conv2D: 3e1f46de
FeatureExtractor/InceptionV2/InceptionV2/Mixed_3b/Branch_2/Conv2d_0c_3x3/BatchNorm/FusedBatchNorm: 3e0de2e9
FeatureExtractor/InceptionV2/InceptionV2/Mixed_3b/Branch_2/Conv2d_0c_3x3/Relu6: 3d418306
FeatureExtractor/InceptionV2/InceptionV2/Mixed_3b/concat: 3d418f1e
FeatureExtractor/InceptionV2/InceptionV2/Mixed_3c/Branch_0/Conv2d_0a_1x1/Conv2D: 3d60b5d2
FeatureExtractor/InceptionV2/InceptionV2/Mixed_3c/Branch_1/Conv2d_0a_1x1/Conv2D: 3dba16ad
FeatureExtractor/InceptionV2/InceptionV2/Mixed_3c/Branch_2/Conv2d_0a_1x1/Conv2D: 3dbc399c
FeatureExtractor/InceptionV2/InceptionV2/Mixed_3c/Branch_3/AvgPool_0a_3x3/AvgPool: 3d418f1e
FeatureExtractor/InceptionV2/InceptionV2/Mixed_3c/Branch_0/Conv2d_0a_1x1/BatchNorm/FusedBatchNorm: 3d652600
FeatureExtractor/InceptionV2/InceptionV2/Mixed_3c/Branch_1/Conv2d_0a_1x1/BatchNorm/FusedBatchNorm: 3d90e547
FeatureExtractor/InceptionV2/InceptionV2/Mixed_3c/Branch_2/Conv2d_0a_1x1/BatchNorm/FusedBatchNorm: 3da46c4e
FeatureExtractor/InceptionV2/InceptionV2/Mixed_3c/Branch_3/Conv2d_0b_1x1/Conv2D: 3d97c6a2
FeatureExtractor/InceptionV2/InceptionV2/Mixed_3c/Branch_0/Conv2d_0a_1x1/Relu6: 3d418306
FeatureExtractor/InceptionV2/InceptionV2/Mixed_3c/Branch_1/Conv2d_0a_1x1/Relu6: 3d418306
FeatureExtractor/InceptionV2/InceptionV2/Mixed_3c/Branch_2/Conv2d_0a_1x1/Relu6: 3d418306
FeatureExtractor/InceptionV2/InceptionV2/Mixed_3c/Branch_3/Conv2d_0b_1x1/BatchNorm/FusedBatchNorm: 3d93c4be
FeatureExtractor/InceptionV2/InceptionV2/Mixed_3c/Branch_1/Conv2d_0b_3x3/Conv2D: 3d763c49
FeatureExtractor/InceptionV2/InceptionV2/Mixed_3c/Branch_2/Conv2d_0b_3x3/Conv2D: 3dad4ab6
FeatureExtractor/InceptionV2/InceptionV2/Mixed_3c/Branch_3/Conv2d_0b_1x1/Relu6: 3d418306
FeatureExtractor/InceptionV2/InceptionV2/Mixed_3c/Branch_1/Conv2d_0b_3x3/BatchNorm/FusedBatchNorm: 3d6d0090
FeatureExtractor/InceptionV2/InceptionV2/Mixed_3c/Branch_2/Conv2d_0b_3x3/BatchNorm/FusedBatchNorm: 3da6b38a
FeatureExtractor/InceptionV2/InceptionV2/Mixed_3c/Branch_1/Conv2d_0b_3x3/Relu6: 3d418306
FeatureExtractor/InceptionV2/InceptionV2/Mixed_3c/Branch_2/Conv2d_0b_3x3/Relu6: 3d418306
FeatureExtractor/InceptionV2/InceptionV2/Mixed_3c/Branch_2/Conv2d_0c_3x3/Conv2D: 3d876e8b
FeatureExtractor/InceptionV2/InceptionV2/Mixed_3c/Branch_2/Conv2d_0c_3x3/BatchNorm/FusedBatchNorm: 3d7e1da2
FeatureExtractor/InceptionV2/InceptionV2/Mixed_3c/Branch_2/Conv2d_0c_3x3/Relu6: 3d418306
FeatureExtractor/InceptionV2/InceptionV2/Mixed_3c/concat: 3d4305ca
FeatureExtractor/InceptionV2/InceptionV2/Mixed_4a/Branch_0/Conv2d_0a_1x1/Conv2D: 3dc22c93
FeatureExtractor/InceptionV2/InceptionV2/Mixed_4a/Branch_1/Conv2d_0a_1x1/Conv2D: 3dac6acb
FeatureExtractor/InceptionV2/InceptionV2/Mixed_4a/Branch_2/MaxPool_1a_3x3/MaxPool: 3d418f1e
FeatureExtractor/InceptionV2/InceptionV2/Mixed_4a/Branch_0/Conv2d_0a_1x1/BatchNorm/FusedBatchNorm: 3da1b9f6
FeatureExtractor/InceptionV2/InceptionV2/Mixed_4a/Branch_1/Conv2d_0a_1x1/BatchNorm/FusedBatchNorm: 3d8bbf2e
FeatureExtractor/InceptionV2/InceptionV2/Mixed_4a/Branch_0/Conv2d_0a_1x1/Relu6: 3d418306
FeatureExtractor/InceptionV2/InceptionV2/Mixed_4a/Branch_1/Conv2d_0a_1x1/Relu6: 3d418306
FeatureExtractor/InceptionV2/InceptionV2/Mixed_4a/Branch_0/Conv2d_1a_3x3/Conv2D: 3e108092
FeatureExtractor/InceptionV2/InceptionV2/Mixed_4a/Branch_1/Conv2d_0b_3x3/Conv2D: 3dbdc718
FeatureExtractor/InceptionV2/InceptionV2/Mixed_4a/Branch_0/Conv2d_1a_3x3/BatchNorm/FusedBatchNorm: 3dfc7f96
FeatureExtractor/InceptionV2/InceptionV2/Mixed_4a/Branch_1/Conv2d_0b_3x3/BatchNorm/FusedBatchNorm: 3da8e6fa
FeatureExtractor/InceptionV2/InceptionV2/Mixed_4a/Branch_0/Conv2d_1a_3x3/Relu6: 3d418306
FeatureExtractor/InceptionV2/InceptionV2/Mixed_4a/Branch_1/Conv2d_0b_3x3/Relu6: 3d418306
FeatureExtractor/InceptionV2/InceptionV2/Mixed_4a/Branch_1/Conv2d_1a_3x3/Conv2D: 3dbdcdf9
FeatureExtractor/InceptionV2/InceptionV2/Mixed_4a/Branch_1/Conv2d_1a_3x3/BatchNorm/FusedBatchNorm: 3dbaa847
FeatureExtractor/InceptionV2/InceptionV2/Mixed_4a/Branch_1/Conv2d_1a_3x3/Relu6: 3d418306
FeatureExtractor/InceptionV2/InceptionV2/Mixed_4a/concat: 3d418f1e
FeatureExtractor/InceptionV2/InceptionV2/Mixed_4b/Branch_0/Conv2d_0a_1x1/Conv2D: 3dc2e363
FeatureExtractor/InceptionV2/InceptionV2/Mixed_4b/Branch_1/Conv2d_0a_1x1/Conv2D: 3d8b28f2
FeatureExtractor/InceptionV2/InceptionV2/Mixed_4b/Branch_2/Conv2d_0a_1x1/Conv2D: 3db1f64b
FeatureExtractor/InceptionV2/InceptionV2/Mixed_4b/Branch_3/AvgPool_0a_3x3/AvgPool: 3d418f1e
FeatureExtractor/InceptionV2/InceptionV2/Mixed_4b/Branch_0/Conv2d_0a_1x1/BatchNorm/FusedBatchNorm: 3db8ed4d
FeatureExtractor/InceptionV2/InceptionV2/Mixed_4b/Branch_1/Conv2d_0a_1x1/BatchNorm/FusedBatchNorm: 3d9eee9f
FeatureExtractor/InceptionV2/InceptionV2/Mixed_4b/Branch_2/Conv2d_0a_1x1/BatchNorm/FusedBatchNorm: 3da6fb51
FeatureExtractor/InceptionV2/InceptionV2/Mixed_4b/Branch_3/Conv2d_0b_1x1/Conv2D: 3e19243d
FeatureExtractor/InceptionV2/InceptionV2/Mixed_4b/Branch_0/Conv2d_0a_1x1/Relu6: 3d418306
FeatureExtractor/InceptionV2/InceptionV2/Mixed_4b/Branch_1/Conv2d_0a_1x1/Relu6: 3d418306
FeatureExtractor/InceptionV2/InceptionV2/Mixed_4b/Branch_2/Conv2d_0a_1x1/Relu6: 3d418306
FeatureExtractor/InceptionV2/InceptionV2/Mixed_4b/Branch_3/Conv2d_0b_1x1/BatchNorm/FusedBatchNorm: 3e13f624
FeatureExtractor/InceptionV2/InceptionV2/Mixed_4b/Branch_1/Conv2d_0b_3x3/Conv2D: 3de27a6a
FeatureExtractor/InceptionV2/InceptionV2/Mixed_4b/Branch_2/Conv2d_0b_3x3/Conv2D: 3dda5c31
FeatureExtractor/InceptionV2/InceptionV2/Mixed_4b/Branch_3/Conv2d_0b_1x1/Relu6: 3d418306
FeatureExtractor/InceptionV2/InceptionV2/Mixed_4b/Branch_1/Conv2d_0b_3x3/BatchNorm/FusedBatchNorm: 3d9aec75
FeatureExtractor/InceptionV2/InceptionV2/Mixed_4b/Branch_2/Conv2d_0b_3x3/BatchNorm/FusedBatchNorm: 3dca6faf
FeatureExtractor/InceptionV2/InceptionV2/Mixed_4b/Branch_1/Conv2d_0b_3x3/Relu6: 3d418306
FeatureExtractor/InceptionV2/InceptionV2/Mixed_4b/Branch_2/Conv2d_0b_3x3/Relu6: 3d418306
FeatureExtractor/InceptionV2/InceptionV2/Mixed_4b/Branch_2/Conv2d_0c_3x3/Conv2D: 3dc54ac8
FeatureExtractor/InceptionV2/InceptionV2/Mixed_4b/Branch_2/Conv2d_0c_3x3/BatchNorm/FusedBatchNorm: 3da6c7ed
FeatureExtractor/InceptionV2/InceptionV2/Mixed_4b/Branch_2/Conv2d_0c_3x3/Relu6: 3d418306
FeatureExtractor/InceptionV2/InceptionV2/Mixed_4b/concat: 3d418f1e
FeatureExtractor/InceptionV2/InceptionV2/Mixed_4c/Branch_0/Conv2d_0a_1x1/Conv2D: 3db33daa
FeatureExtractor/InceptionV2/InceptionV2/Mixed_4c/Branch_1/Conv2d_0a_1x1/Conv2D: 3daed7ef
FeatureExtractor/InceptionV2/InceptionV2/Mixed_4c/Branch_2/Conv2d_0a_1x1/Conv2D: 3e5ab3c9
FeatureExtractor/InceptionV2/InceptionV2/Mixed_4c/Branch_3/AvgPool_0a_3x3/AvgPool: 3d418f1e
FeatureExtractor/InceptionV2/InceptionV2/Mixed_4c/Branch_0/Conv2d_0a_1x1/BatchNorm/FusedBatchNorm: 3d386479
FeatureExtractor/InceptionV2/InceptionV2/Mixed_4c/Branch_1/Conv2d_0a_1x1/BatchNorm/FusedBatchNorm: 3da2435e
FeatureExtractor/InceptionV2/InceptionV2/Mixed_4c/Branch_2/Conv2d_0a_1x1/BatchNorm/FusedBatchNorm: 3e521f6c
FeatureExtractor/InceptionV2/InceptionV2/Mixed_4c/Branch_3/Conv2d_0b_1x1/Conv2D: 3e2fc8be
FeatureExtractor/InceptionV2/InceptionV2/Mixed_4c/Branch_0/Conv2d_0a_1x1/Relu6: 3d418306
FeatureExtractor/InceptionV2/InceptionV2/Mixed_4c/Branch_1/Conv2d_0a_1x1/Relu6: 3d418306
FeatureExtractor/InceptionV2/InceptionV2/Mixed_4c/Branch_2/Conv2d_0a_1x1/Relu6: 3d418306
FeatureExtractor/InceptionV2/InceptionV2/Mixed_4c/Branch_3/Conv2d_0b_1x1/BatchNorm/FusedBatchNorm: 3dffa231
FeatureExtractor/InceptionV2/InceptionV2/Mixed_4c/Branch_1/Conv2d_0b_3x3/Conv2D: 3dab2804
FeatureExtractor/InceptionV2/InceptionV2/Mixed_4c/Branch_2/Conv2d_0b_3x3/Conv2D: 3e67f2aa
FeatureExtractor/InceptionV2/InceptionV2/Mixed_4c/Branch_3/Conv2d_0b_1x1/Relu6: 3d418306
FeatureExtractor/InceptionV2/InceptionV2/Mixed_4c/Branch_1/Conv2d_0b_3x3/BatchNorm/FusedBatchNorm: 3da94680
FeatureExtractor/InceptionV2/InceptionV2/Mixed_4c/Branch_2/Conv2d_0b_3x3/BatchNorm/FusedBatchNorm: 3e54a129
FeatureExtractor/InceptionV2/InceptionV2/Mixed_4c/Branch_1/Conv2d_0b_3x3/Relu6: 3d418306
FeatureExtractor/InceptionV2/InceptionV2/Mixed_4c/Branch_2/Conv2d_0b_3x3/Relu6: 3d418306
FeatureExtractor/InceptionV2/InceptionV2/Mixed_4c/Branch_2/Conv2d_0c_3x3/Conv2D: 3e13fc56
FeatureExtractor/InceptionV2/InceptionV2/Mixed_4c/Branch_2/Conv2d_0c_3x3/BatchNorm/FusedBatchNorm: 3e0a7519
FeatureExtractor/InceptionV2/InceptionV2/Mixed_4c/Branch_2/Conv2d_0c_3x3/Relu6: 3d418306
FeatureExtractor/InceptionV2/InceptionV2/Mixed_4c/concat: 3d4616f5
FeatureExtractor/InceptionV2/InceptionV2/Mixed_4d/Branch_0/Conv2d_0a_1x1/Conv2D: 3d7701d0
FeatureExtractor/InceptionV2/InceptionV2/Mixed_4d/Branch_1/Conv2d_0a_1x1/Conv2D: 3dc487b8
FeatureExtractor/InceptionV2/InceptionV2/Mixed_4d/Branch_2/Conv2d_0a_1x1/Conv2D: 3dc30a0a
FeatureExtractor/InceptionV2/InceptionV2/Mixed_4d/Branch_3/AvgPool_0a_3x3/AvgPool: 3d4616f5
BoxPredictor_loc_conf_0: 3e2a2991
FeatureExtractor/InceptionV2/InceptionV2/Mixed_4d/Branch_0/Conv2d_0a_1x1/BatchNorm/FusedBatchNorm: 3d80542d
FeatureExtractor/InceptionV2/InceptionV2/Mixed_4d/Branch_1/Conv2d_0a_1x1/BatchNorm/FusedBatchNorm: 3dd52844
FeatureExtractor/InceptionV2/InceptionV2/Mixed_4d/Branch_2/Conv2d_0a_1x1/BatchNorm/FusedBatchNorm: 3dbeb89e
FeatureExtractor/InceptionV2/InceptionV2/Mixed_4d/Branch_3/Conv2d_0b_1x1/Conv2D: 3dbf1c23
FeatureExtractor/InceptionV2/InceptionV2/Mixed_4d/Branch_0/Conv2d_0a_1x1/Relu6: 3d418306
FeatureExtractor/InceptionV2/InceptionV2/Mixed_4d/Branch_1/Conv2d_0a_1x1/Relu6: 3d418306
FeatureExtractor/InceptionV2/InceptionV2/Mixed_4d/Branch_2/Conv2d_0a_1x1/Relu6: 3d418306
FeatureExtractor/InceptionV2/InceptionV2/Mixed_4d/Branch_3/Conv2d_0b_1x1/BatchNorm/FusedBatchNorm: 3dd1dab9
FeatureExtractor/InceptionV2/InceptionV2/Mixed_4d/Branch_1/Conv2d_0b_3x3/Conv2D: 3db167f2
FeatureExtractor/InceptionV2/InceptionV2/Mixed_4d/Branch_2/Conv2d_0b_3x3/Conv2D: 3dd20da6
FeatureExtractor/InceptionV2/InceptionV2/Mixed_4d/Branch_3/Conv2d_0b_1x1/Relu6: 3d418306
FeatureExtractor/InceptionV2/InceptionV2/Mixed_4d/Branch_1/Conv2d_0b_3x3/BatchNorm/FusedBatchNorm: 3daa35bf
FeatureExtractor/InceptionV2/InceptionV2/Mixed_4d/Branch_2/Conv2d_0b_3x3/BatchNorm/FusedBatchNorm: 3dbd0be9
FeatureExtractor/InceptionV2/InceptionV2/Mixed_4d/Branch_1/Conv2d_0b_3x3/Relu6: 3d418306
FeatureExtractor/InceptionV2/InceptionV2/Mixed_4d/Branch_2/Conv2d_0b_3x3/Relu6: 3d418306
FeatureExtractor/InceptionV2/InceptionV2/Mixed_4d/Branch_2/Conv2d_0c_3x3/Conv2D: 3da851b2
FeatureExtractor/InceptionV2/InceptionV2/Mixed_4d/Branch_2/Conv2d_0c_3x3/BatchNorm/FusedBatchNorm: 3d9eac32
FeatureExtractor/InceptionV2/InceptionV2/Mixed_4d/Branch_2/Conv2d_0c_3x3/Relu6: 3d418306
FeatureExtractor/InceptionV2/InceptionV2/Mixed_4d/concat: 3d418f1e
FeatureExtractor/InceptionV2/InceptionV2/Mixed_4e/Branch_0/Conv2d_0a_1x1/Conv2D: 3d9c3d5e
FeatureExtractor/InceptionV2/InceptionV2/Mixed_4e/Branch_1/Conv2d_0a_1x1/Conv2D: 3da60cdd
FeatureExtractor/InceptionV2/InceptionV2/Mixed_4e/Branch_2/Conv2d_0a_1x1/Conv2D: 3da47c2b
FeatureExtractor/InceptionV2/InceptionV2/Mixed_4e/Branch_3/AvgPool_0a_3x3/AvgPool: 3d418f1e
FeatureExtractor/InceptionV2/InceptionV2/Mixed_4e/Branch_0/Conv2d_0a_1x1/BatchNorm/FusedBatchNorm: 3d8be7f3
FeatureExtractor/InceptionV2/InceptionV2/Mixed_4e/Branch_1/Conv2d_0a_1x1/BatchNorm/FusedBatchNorm: 3d9bceef
FeatureExtractor/InceptionV2/InceptionV2/Mixed_4e/Branch_2/Conv2d_0a_1x1/BatchNorm/FusedBatchNorm: 3d9eff1b
FeatureExtractor/InceptionV2/InceptionV2/Mixed_4e/Branch_3/Conv2d_0b_1x1/Conv2D: 3d80b8fa
FeatureExtractor/InceptionV2/InceptionV2/Mixed_4e/Branch_0/Conv2d_0a_1x1/Relu6: 3d418306
FeatureExtractor/InceptionV2/InceptionV2/Mixed_4e/Branch_1/Conv2d_0a_1x1/Relu6: 3d418306
FeatureExtractor/InceptionV2/InceptionV2/Mixed_4e/Branch_2/Conv2d_0a_1x1/Relu6: 3d418306
FeatureExtractor/InceptionV2/InceptionV2/Mixed_4e/Branch_3/Conv2d_0b_1x1/BatchNorm/FusedBatchNorm: 3d4f701d
FeatureExtractor/InceptionV2/InceptionV2/Mixed_4e/Branch_1/Conv2d_0b_3x3/Conv2D: 3d962f64
FeatureExtractor/InceptionV2/InceptionV2/Mixed_4e/Branch_2/Conv2d_0b_3x3/Conv2D: 3da7cd34
FeatureExtractor/InceptionV2/InceptionV2/Mixed_4e/Branch_3/Conv2d_0b_1x1/Relu6: 3d418306
FeatureExtractor/InceptionV2/InceptionV2/Mixed_4e/Branch_1/Conv2d_0b_3x3/BatchNorm/FusedBatchNorm: 3d935779
FeatureExtractor/InceptionV2/InceptionV2/Mixed_4e/Branch_2/Conv2d_0b_3x3/BatchNorm/FusedBatchNorm: 3d950c54
FeatureExtractor/InceptionV2/InceptionV2/Mixed_4e/Branch_1/Conv2d_0b_3x3/Relu6: 3d418306
FeatureExtractor/InceptionV2/InceptionV2/Mixed_4e/Branch_2/Conv2d_0b_3x3/Relu6: 3d418306
FeatureExtractor/InceptionV2/InceptionV2/Mixed_4e/Branch_2/Conv2d_0c_3x3/Conv2D: 3db2e055
FeatureExtractor/InceptionV2/InceptionV2/Mixed_4e/Branch_2/Conv2d_0c_3x3/BatchNorm/FusedBatchNorm: 3d8b8c5e
FeatureExtractor/InceptionV2/InceptionV2/Mixed_4e/Branch_2/Conv2d_0c_3x3/Relu6: 3d418306
FeatureExtractor/InceptionV2/InceptionV2/Mixed_4e/concat: 3d445b24
FeatureExtractor/InceptionV2/InceptionV2/Mixed_5a/Branch_0/Conv2d_0a_1x1/Conv2D: 3dc368bd
FeatureExtractor/InceptionV2/InceptionV2/Mixed_5a/Branch_1/Conv2d_0a_1x1/Conv2D: 3dc732e2
FeatureExtractor/InceptionV2/InceptionV2/Mixed_5a/Branch_2/MaxPool_1a_3x3/MaxPool: 3d418f1e
FeatureExtractor/InceptionV2/InceptionV2/Mixed_5a/Branch_0/Conv2d_0a_1x1/BatchNorm/FusedBatchNorm: 3d95e69e
FeatureExtractor/InceptionV2/InceptionV2/Mixed_5a/Branch_1/Conv2d_0a_1x1/BatchNorm/FusedBatchNorm: 3d9ba916
FeatureExtractor/InceptionV2/InceptionV2/Mixed_5a/Branch_0/Conv2d_0a_1x1/Relu6: 3d418306
FeatureExtractor/InceptionV2/InceptionV2/Mixed_5a/Branch_1/Conv2d_0a_1x1/Relu6: 3d418306
FeatureExtractor/InceptionV2/InceptionV2/Mixed_5a/Branch_0/Conv2d_1a_3x3/Conv2D: 3dc670b2
FeatureExtractor/InceptionV2/InceptionV2/Mixed_5a/Branch_1/Conv2d_0b_3x3/Conv2D: 3dc208f1
FeatureExtractor/InceptionV2/InceptionV2/Mixed_5a/Branch_0/Conv2d_1a_3x3/BatchNorm/FusedBatchNorm: 3dc51a97
FeatureExtractor/InceptionV2/InceptionV2/Mixed_5a/Branch_1/Conv2d_0b_3x3/BatchNorm/FusedBatchNorm: 3dc42bf0
FeatureExtractor/InceptionV2/InceptionV2/Mixed_5a/Branch_0/Conv2d_1a_3x3/Relu6: 3d418306
FeatureExtractor/InceptionV2/InceptionV2/Mixed_5a/Branch_1/Conv2d_0b_3x3/Relu6: 3d418306
FeatureExtractor/InceptionV2/InceptionV2/Mixed_5a/Branch_1/Conv2d_1a_3x3/Conv2D: 3e20365a
FeatureExtractor/InceptionV2/InceptionV2/Mixed_5a/Branch_1/Conv2d_1a_3x3/BatchNorm/FusedBatchNorm: 3e17d507
FeatureExtractor/InceptionV2/InceptionV2/Mixed_5a/Branch_1/Conv2d_1a_3x3/Relu6: 3d418306
FeatureExtractor/InceptionV2/InceptionV2/Mixed_5a/concat: 3d418f1e
FeatureExtractor/InceptionV2/InceptionV2/Mixed_5b/Branch_0/Conv2d_0a_1x1/Conv2D: 3dc0c8cf
FeatureExtractor/InceptionV2/InceptionV2/Mixed_5b/Branch_1/Conv2d_0a_1x1/Conv2D: 3dbcf862
FeatureExtractor/InceptionV2/InceptionV2/Mixed_5b/Branch_2/Conv2d_0a_1x1/Conv2D: 3dbcde24
FeatureExtractor/InceptionV2/InceptionV2/Mixed_5b/Branch_3/AvgPool_0a_3x3/AvgPool: 3d418f1e
FeatureExtractor/InceptionV2/InceptionV2/Mixed_5b/Branch_0/Conv2d_0a_1x1/BatchNorm/FusedBatchNorm: 3dd5a8b9
FeatureExtractor/InceptionV2/InceptionV2/Mixed_5b/Branch_1/Conv2d_0a_1x1/BatchNorm/FusedBatchNorm: 3dc1175a
FeatureExtractor/InceptionV2/InceptionV2/Mixed_5b/Branch_2/Conv2d_0a_1x1/BatchNorm/FusedBatchNorm: 3daa98f2
FeatureExtractor/InceptionV2/InceptionV2/Mixed_5b/Branch_3/Conv2d_0b_1x1/Conv2D: 3de470a2
FeatureExtractor/InceptionV2/InceptionV2/Mixed_5b/Branch_0/Conv2d_0a_1x1/Relu6: 3d418306
FeatureExtractor/InceptionV2/InceptionV2/Mixed_5b/Branch_1/Conv2d_0a_1x1/Relu6: 3d418306
FeatureExtractor/InceptionV2/InceptionV2/Mixed_5b/Branch_2/Conv2d_0a_1x1/Relu6: 3d418306
FeatureExtractor/InceptionV2/InceptionV2/Mixed_5b/Branch_3/Conv2d_0b_1x1/BatchNorm/FusedBatchNorm: 3e50568a
FeatureExtractor/InceptionV2/InceptionV2/Mixed_5b/Branch_1/Conv2d_0b_3x3/Conv2D: 3e130242
FeatureExtractor/InceptionV2/InceptionV2/Mixed_5b/Branch_2/Conv2d_0b_3x3/Conv2D: 3de575ee
FeatureExtractor/InceptionV2/InceptionV2/Mixed_5b/Branch_3/Conv2d_0b_1x1/Relu6: 3d418306
FeatureExtractor/InceptionV2/InceptionV2/Mixed_5b/Branch_1/Conv2d_0b_3x3/BatchNorm/FusedBatchNorm: 3e244201
FeatureExtractor/InceptionV2/InceptionV2/Mixed_5b/Branch_2/Conv2d_0b_3x3/BatchNorm/FusedBatchNorm: 3debe997
FeatureExtractor/InceptionV2/InceptionV2/Mixed_5b/Branch_1/Conv2d_0b_3x3/Relu6: 3d418306
FeatureExtractor/InceptionV2/InceptionV2/Mixed_5b/Branch_2/Conv2d_0b_3x3/Relu6: 3d418306
FeatureExtractor/InceptionV2/InceptionV2/Mixed_5b/Branch_2/Conv2d_0c_3x3/Conv2D: 3dcd0227
FeatureExtractor/InceptionV2/InceptionV2/Mixed_5b/Branch_2/Conv2d_0c_3x3/BatchNorm/FusedBatchNorm: 3dbd0f9d
FeatureExtractor/InceptionV2/InceptionV2/Mixed_5b/Branch_2/Conv2d_0c_3x3/Relu6: 3d418306
FeatureExtractor/InceptionV2/InceptionV2/Mixed_5b/concat: 3d44935f
FeatureExtractor/InceptionV2/InceptionV2/Mixed_5c/Branch_0/Conv2d_0a_1x1/Conv2D: 3e417cd2
FeatureExtractor/InceptionV2/InceptionV2/Mixed_5c/Branch_1/Conv2d_0a_1x1/Conv2D: 3e91bfc2
FeatureExtractor/InceptionV2/InceptionV2/Mixed_5c/Branch_2/Conv2d_0a_1x1/Conv2D: 3e9667cd
FeatureExtractor/InceptionV2/InceptionV2/Mixed_5c/Branch_3/MaxPool_0a_3x3/MaxPool: 3d44935f
FeatureExtractor/InceptionV2/InceptionV2/Mixed_5c/Branch_0/Conv2d_0a_1x1/BatchNorm/FusedBatchNorm: 3e3e3335
FeatureExtractor/InceptionV2/InceptionV2/Mixed_5c/Branch_1/Conv2d_0a_1x1/BatchNorm/FusedBatchNorm: 3e93c41f
FeatureExtractor/InceptionV2/InceptionV2/Mixed_5c/Branch_2/Conv2d_0a_1x1/BatchNorm/FusedBatchNorm: 3e97c3a4
FeatureExtractor/InceptionV2/InceptionV2/Mixed_5c/Branch_3/Conv2d_0b_1x1/Conv2D: 3e279ce0
FeatureExtractor/InceptionV2/InceptionV2/Mixed_5c/Branch_0/Conv2d_0a_1x1/Relu6: 3d418306
FeatureExtractor/InceptionV2/InceptionV2/Mixed_5c/Branch_1/Conv2d_0a_1x1/Relu6: 3d418306
FeatureExtractor/InceptionV2/InceptionV2/Mixed_5c/Branch_2/Conv2d_0a_1x1/Relu6: 3d418306
FeatureExtractor/InceptionV2/InceptionV2/Mixed_5c/Branch_3/Conv2d_0b_1x1/BatchNorm/FusedBatchNorm: 3e229c80
FeatureExtractor/InceptionV2/InceptionV2/Mixed_5c/Branch_1/Conv2d_0b_3x3/Conv2D: 3e4c7b52
FeatureExtractor/InceptionV2/InceptionV2/Mixed_5c/Branch_2/Conv2d_0b_3x3/Conv2D: 3e429784
FeatureExtractor/InceptionV2/InceptionV2/Mixed_5c/Branch_3/Conv2d_0b_1x1/Relu6: 3d418306
FeatureExtractor/InceptionV2/InceptionV2/Mixed_5c/Branch_1/Conv2d_0b_3x3/BatchNorm/FusedBatchNorm: 3e8b9681
FeatureExtractor/InceptionV2/InceptionV2/Mixed_5c/Branch_2/Conv2d_0b_3x3/BatchNorm/FusedBatchNorm: 3e43511b
FeatureExtractor/InceptionV2/InceptionV2/Mixed_5c/Branch_1/Conv2d_0b_3x3/Relu6: 3d418306
FeatureExtractor/InceptionV2/InceptionV2/Mixed_5c/Branch_2/Conv2d_0b_3x3/Relu6: 3d418306
FeatureExtractor/InceptionV2/InceptionV2/Mixed_5c/Branch_2/Conv2d_0c_3x3/Conv2D: 3e40feaa
FeatureExtractor/InceptionV2/InceptionV2/Mixed_5c/Branch_2/Conv2d_0c_3x3/BatchNorm/FusedBatchNorm: 3e24dfd4
FeatureExtractor/InceptionV2/InceptionV2/Mixed_5c/Branch_2/Conv2d_0c_3x3/Relu6: 3d418306
FeatureExtractor/InceptionV2/InceptionV2/Mixed_5c/concat: 3d418f1e
FeatureExtractor/InceptionV2/Mixed_5c_1_Conv2d_2_1x1_256/Conv2D: 3e3f970b
BoxPredictor_loc_conf_1: 3e2ed10d
FeatureExtractor/InceptionV2/Mixed_5c_1_Conv2d_2_1x1_256/BatchNorm/FusedBatchNorm: 3e3a7f54
FeatureExtractor/InceptionV2/Mixed_5c_1_Conv2d_2_1x1_256/Relu6: 3d418306
FeatureExtractor/InceptionV2/Mixed_5c_2_Conv2d_2_3x3_s2_512/Conv2D: 3e6b982e
FeatureExtractor/InceptionV2/Mixed_5c_2_Conv2d_2_3x3_s2_512/BatchNorm/FusedBatchNorm: 3e583485
FeatureExtractor/InceptionV2/Mixed_5c_2_Conv2d_2_3x3_s2_512/Relu6: 3d418306
FeatureExtractor/InceptionV2/Mixed_5c_1_Conv2d_3_1x1_128/Conv2D: 3e348a17
BoxPredictor_loc_conf_2: 3e258fe4
FeatureExtractor/InceptionV2/Mixed_5c_1_Conv2d_3_1x1_128/BatchNorm/FusedBatchNorm: 3e26a2bf
FeatureExtractor/InceptionV2/Mixed_5c_1_Conv2d_3_1x1_128/Relu6: 3d418306
FeatureExtractor/InceptionV2/Mixed_5c_2_Conv2d_3_3x3_s2_256/Conv2D: 3e7baab7
FeatureExtractor/InceptionV2/Mixed_5c_2_Conv2d_3_3x3_s2_256/BatchNorm/FusedBatchNorm: 3e701d19
FeatureExtractor/InceptionV2/Mixed_5c_2_Conv2d_3_3x3_s2_256/Relu6: 3d418306
FeatureExtractor/InceptionV2/Mixed_5c_1_Conv2d_4_1x1_128/Conv2D: 3d9cd53d
BoxPredictor_loc_conf_3: 3e2350a4
FeatureExtractor/InceptionV2/Mixed_5c_1_Conv2d_4_1x1_128/BatchNorm/FusedBatchNorm: 3da34f5d
FeatureExtractor/InceptionV2/Mixed_5c_1_Conv2d_4_1x1_128/Relu6: 3d418306
FeatureExtractor/InceptionV2/Mixed_5c_2_Conv2d_4_3x3_s2_256/Conv2D: 3dc8a364
FeatureExtractor/InceptionV2/Mixed_5c_2_Conv2d_4_3x3_s2_256/BatchNorm/FusedBatchNorm: 3dce3570
FeatureExtractor/InceptionV2/Mixed_5c_2_Conv2d_4_3x3_s2_256/Relu6: 3d418306
FeatureExtractor/InceptionV2/Mixed_5c_1_Conv2d_5_1x1_64/Conv2D: 3d4e6d7b
BoxPredictor_loc_conf_4: 3e1267cb
FeatureExtractor/InceptionV2/Mixed_5c_1_Conv2d_5_1x1_64/BatchNorm/FusedBatchNorm: 3d364c34
FeatureExtractor/InceptionV2/Mixed_5c_1_Conv2d_5_1x1_64/Relu6: 3d418306
FeatureExtractor/InceptionV2/Mixed_5c_2_Conv2d_5_3x3_s2_128/Conv2D: 3de29181
FeatureExtractor/InceptionV2/Mixed_5c_2_Conv2d_5_3x3_s2_128/BatchNorm/FusedBatchNorm: 3dc3a926
FeatureExtractor/InceptionV2/Mixed_5c_2_Conv2d_5_3x3_s2_128/Relu6: 3d418306
BoxPredictor_loc_conf_5: 3e10fb86
Postprocessor_HL_1804289383: 3f7e0c18
